{
  "version": "1.0",
  "truncation": null,
  "padding": null,
  "added_tokens": [
    {
      "id": 0,
      "content": "<pad>",
      "single_word": false,
      "lstrip": false,
      "rstrip": false,
      "normalized": false,
      "special": true
    },
    {
      "id": 1,
      "content": "<unk>",
      "single_word": false,
      "lstrip": false,
      "rstrip": false,
      "normalized": false,
      "special": true
    },
    {
      "id": 2,
      "content": "[CLS]",
      "single_word": false,
      "lstrip": false,
      "rstrip": false,
      "normalized": false,
      "special": true
    },
    {
      "id": 3,
      "content": "[SEP]",
      "single_word": false,
      "lstrip": false,
      "rstrip": false,
      "normalized": false,
      "special": true
    },
    {
      "id": 4,
      "content": "[MASK]",
      "single_word": false,
      "lstrip": false,
      "rstrip": false,
      "normalized": false,
      "special": true
    },
    {
      "id": 64000,
      "content": "<s>",
      "single_word": false,
      "lstrip": false,
      "rstrip": false,
      "normalized": true,
      "special": false
    },
    {
      "id": 64001,
      "content": "</s>",
      "single_word": false,
      "lstrip": false,
      "rstrip": false,
      "normalized": true,
      "special": false
    },
    {
      "id": 64002,
      "content": "<2shuf>",
      "single_word": false,
      "lstrip": false,
      "rstrip": false,
      "normalized": true,
      "special": false
    },
    {
      "id": 64003,
      "content": "<2as>",
      "single_word": false,
      "lstrip": false,
      "rstrip": false,
      "normalized": true,
      "special": false
    },
    {
      "id": 64004,
      "content": "<2bn>",
      "single_word": false,
      "lstrip": false,
      "rstrip": false,
      "normalized": true,
      "special": false
    },
    {
      "id": 64005,
      "content": "<2en>",
      "single_word": false,
      "lstrip": false,
      "rstrip": false,
      "normalized": true,
      "special": false
    },
    {
      "id": 64006,
      "content": "<2gu>",
      "single_word": false,
      "lstrip": false,
      "rstrip": false,
      "normalized": true,
      "special": false
    },
    {
      "id": 64007,
      "content": "<2hi>",
      "single_word": false,
      "lstrip": false,
      "rstrip": false,
      "normalized": true,
      "special": false
    },
    {
      "id": 64008,
      "content": "<2kn>",
      "single_word": false,
      "lstrip": false,
      "rstrip": false,
      "normalized": true,
      "special": false
    },
    {
      "id": 64009,
      "content": "<2ml>",
      "single_word": false,
      "lstrip": false,
      "rstrip": false,
      "normalized": true,
      "special": false
    },
    {
      "id": 64010,
      "content": "<2mr>",
      "single_word": false,
      "lstrip": false,
      "rstrip": false,
      "normalized": true,
      "special": false
    },
    {
      "id": 64011,
      "content": "<2or>",
      "single_word": false,
      "lstrip": false,
      "rstrip": false,
      "normalized": true,
      "special": false
    },
    {
      "id": 64012,
      "content": "<2pa>",
      "single_word": false,
      "lstrip": false,
      "rstrip": false,
      "normalized": true,
      "special": false
    },
    {
      "id": 64013,
      "content": "<2ta>",
      "single_word": false,
      "lstrip": false,
      "rstrip": false,
      "normalized": true,
      "special": false
    },
    {
      "id": 64014,
      "content": "<2te>",
      "single_word": false,
      "lstrip": false,
      "rstrip": false,
      "normalized": true,
      "special": false
    }
  ],
  "normalizer": {
    "type": "Sequence",
    "normalizers": [
      {
        "type": "Replace",
        "pattern": {
          "String": "``"
        },
        "content": "\""
      },
      {
        "type": "Replace",
        "pattern": {
          "String": "''"
        },
        "content": "\""
      },
      {
        "type": "NFKD"
      },
      {
        "type": "StripAccents"
      },
      {
        "type": "Lowercase"
      },
      {
        "type": "Replace",
        "pattern": {
          "Regex": " {2,}"
        },
        "content": " "
      },
      {
        "type": "Replace",
        "pattern": {
          "Regex": " {2,}"
        },
        "content": " "
      }
    ]
  },
  "pre_tokenizer": {
    "type": "Sequence",
    "pretokenizers": [
      {
        "type": "WhitespaceSplit"
      },
      {
        "type": "Metaspace",
        "replacement": "▁",
        "prepend_scheme": "always",
        "split": true
      }
    ]
  },
  "post_processor": {
    "type": "TemplateProcessing",
    "single": [
      {
        "SpecialToken": {
          "id": "[CLS]",
          "type_id": 0
        }
      },
      {
        "Sequence": {
          "id": "A",
          "type_id": 0
        }
      },
      {
        "SpecialToken": {
          "id": "[SEP]",
          "type_id": 0
        }
      }
    ],
    "pair": [
      {
        "SpecialToken": {
          "id": "[CLS]",
          "type_id": 0
        }
      },
      {
        "Sequence": {
          "id": "A",
          "type_id": 0
        }
      },
      {
        "SpecialToken": {
          "id": "[SEP]",
          "type_id": 0
        }
      },
      {
        "Sequence": {
          "id": "B",
          "type_id": 1
        }
      },
      {
        "SpecialToken": {
          "id": "[SEP]",
          "type_id": 1
        }
      }
    ],
    "special_tokens": {
      "[CLS]": {
        "id": "[CLS]",
        "ids": [
          2
        ],
        "tokens": [
          "[CLS]"
        ]
      },
      "[SEP]": {
        "id": "[SEP]",
        "ids": [
          3
        ],
        "tokens": [
          "[SEP]"
        ]
      }
    }
  },
  "decoder": {
    "type": "Metaspace",
    "replacement": "▁",
    "prepend_scheme": "always",
    "split": true
  },
  "model": {
    "type": "Unigram",
    "unk_id": 1,
    "vocab": [
      [
        "<pad>",
        0.0
      ],
      [
        "<unk>",
        0.0
      ],
      [
        "[CLS]",
        0.0
      ],
      [
        "[SEP]",
        0.0
      ],
      [
        "[MASK]",
        0.0
      ],
      [
        ".",
        -3.686047315597534
      ],
      [
        ",",
        -3.8439390659332275
      ],
      [
        "।",
        -4.468011379241943
      ],
      [
        "▁",
        -4.5498762130737305
      ],
      [
        "-",
        -5.528017997741699
      ],
      [
        "ৰ",
        -5.643176555633545
      ],
      [
        "▁the",
        -5.732728958129883
      ],
      [
        "▁के",
        -5.743739128112793
      ],
      [
        "s",
        -5.941874027252197
      ],
      [
        "’",
        -6.024190425872803
      ],
      [
        "▁में",
        -6.044186115264893
      ],
      [
        "▁ਦੇ",
        -6.145641326904297
      ],
      [
        "▁है",
        -6.152445316314697
      ],
      [
        "▁છે",
        -6.161896228790283
      ],
      [
        "▁की",
        -6.192246913909912
      ],
      [
        "ে",
        -6.308787822723389
      ],
      [
        ":",
        -6.31714391708374
      ],
      [
        "▁.",
        -6.327366828918457
      ],
      [
        "▁ਹੈ",
        -6.327422618865967
      ],
      [
        "▁(",
        -6.331262111663818
      ],
      [
        "▁of",
        -6.400038242340088
      ],
      [
        ")",
        -6.424898147583008
      ],
      [
        "ত",
        -6.4277729988098145
      ],
      [
        "▁ਨੂੰ",
        -6.471267223358154
      ],
      [
        "▁को",
        -6.477497100830078
      ],
      [
        "▁।",
        -6.481192588806152
      ],
      [
        "▁to",
        -6.483234405517578
      ],
      [
        "ের",
        -6.503407001495361
      ],
      [
        "▁ਦੀ",
        -6.50400447845459
      ],
      [
        "▁से",
        -6.544554710388184
      ],
      [
        "▁and",
        -6.553872585296631
      ],
      [
        "▁in",
        -6.598763465881348
      ],
      [
        "▁का",
        -6.677993297576904
      ],
      [
        "▁‘",
        -6.678003311157227
      ],
      [
        "র",
        -6.678971767425537
      ],
      [
        "ରେ",
        -6.746736526489258
      ],
      [
        "▁a",
        -6.773012161254883
      ],
      [
        "ক",
        -6.775628566741943
      ],
      [
        "▁और",
        -6.782599925994873
      ],
      [
        "▁'",
        -6.792367458343506
      ],
      [
        "▁ने",
        -6.85208797454834
      ],
      [
        "ର",
        -6.8727850914001465
      ],
      [
        "ம்",
        -6.8871588706970215
      ],
      [
        "▁અને",
        -6.8935933113098145
      ],
      [
        "▁आहे",
        -6.899458408355713
      ],
      [
        "▁ਅਤੇ",
        -6.915966987609863
      ],
      [
        "ই",
        -6.937880039215088
      ],
      [
        "ी",
        -6.9426960945129395
      ],
      [
        "▁पर",
        -6.955155849456787
      ],
      [
        "ം",
        -6.957414627075195
      ],
      [
        "માં",
        -6.964558124542236
      ],
      [
        "▁ਨੇ",
        -6.998702049255371
      ],
      [
        "?",
        -7.00360107421875
      ],
      [
        "ના",
        -7.009475231170654
      ],
      [
        "ની",
        -7.020376682281494
      ],
      [
        "▁এই",
        -7.040652751922607
      ],
      [
        "▁ਦਾ",
        -7.057704925537109
      ],
      [
        "▁-",
        -7.062186241149902
      ],
      [
        "്",
        -7.078840732574463
      ],
      [
        "▁ਸਿੰਘ",
        -7.079886436462402
      ],
      [
        "▁कि",
        -7.100343227386475
      ],
      [
        "▁আৰু",
        -7.11843729019165
      ],
      [
        "▁ਕਿ",
        -7.1270623207092285
      ],
      [
        "▁एक",
        -7.1369309425354
      ],
      [
        "▁हैं",
        -7.139082431793213
      ],
      [
        "▁ਇਸ",
        -7.169570446014404
      ],
      [
        "ा",
        -7.220145225524902
      ],
      [
        "▁\"",
        -7.225119113922119
      ],
      [
        "ੀ",
        -7.229754447937012
      ],
      [
        "▁ਲਈ",
        -7.248894691467285
      ],
      [
        "ದ",
        -7.263026237487793
      ],
      [
        "▁या",
        -7.303251266479492
      ],
      [
        "'",
        -7.307579517364502
      ],
      [
        "▁આ",
        -7.311360836029053
      ],
      [
        "ਾਂ",
        -7.311554908752441
      ],
      [
        "ને",
        -7.314199924468994
      ],
      [
        "৷",
        -7.332837104797363
      ],
      [
        "ed",
        -7.336400032043457
      ],
      [
        "▁भी",
        -7.342427730560303
      ],
      [
        "ों",
        -7.373687267303467
      ],
      [
        "କୁ",
        -7.391733646392822
      ],
      [
        "কে",
        -7.399936199188232
      ],
      [
        "▁ਵਿੱਚ",
        -7.407519340515137
      ],
      [
        "▁ਨਾਲ",
        -7.407623291015625
      ],
      [
        "ing",
        -7.4102606773376465
      ],
      [
        "ব",
        -7.413277626037598
      ],
      [
        "ল",
        -7.4152607917785645
      ],
      [
        "त",
        -7.4196085929870605
      ],
      [
        "▁કે",
        -7.430592060089111
      ],
      [
        "ਚ",
        -7.432628631591797
      ],
      [
        "▁आणि",
        -7.438111782073975
      ],
      [
        "▁is",
        -7.444524765014648
      ],
      [
        "▁:",
        -7.453860282897949
      ],
      [
        "▁|",
        -7.4556074142456055
      ],
      [
        "े",
        -7.456587314605713
      ],
      [
        "ও",
        -7.457199573516846
      ],
      [
        "▁“",
        -7.460657119750977
      ],
      [
        "▁for",
        -7.462642669677734
      ],
      [
        "க்",
        -7.466024398803711
      ],
      [
        "▁ਤੋਂ",
        -7.472108364105225
      ],
      [
        "▁ও",
        -7.482713222503662
      ],
      [
        "▁on",
        -7.490913391113281
      ],
      [
        "▁কৰি",
        -7.517545700073242
      ],
      [
        "▁માટે",
        -7.518922328948975
      ],
      [
        "ం",
        -7.534980773925781
      ],
      [
        "▁ಮತ್ತು",
        -7.5363640785217285
      ],
      [
        "ப்",
        -7.538288593292236
      ],
      [
        "▁ਤੇ",
        -7.539544105529785
      ],
      [
        "లు",
        -7.540543556213379
      ],
      [
        "▁ਵਿਚ",
        -7.548225402832031
      ],
      [
        "கள்",
        -7.551905632019043
      ],
      [
        "▁ਹਨ",
        -7.555050849914551
      ],
      [
        "ला",
        -7.558218479156494
      ],
      [
        "▁ही",
        -7.559946060180664
      ],
      [
        "▁that",
        -7.561103343963623
      ],
      [
        "లో",
        -7.561328887939453
      ],
      [
        "ો",
        -7.565139293670654
      ],
      [
        "▁না",
        -7.567842483520508
      ],
      [
        "▁कर",
        -7.573925018310547
      ],
      [
        "▁হ",
        -7.586113929748535
      ],
      [
        "ন",
        -7.591425895690918
      ],
      [
        "ਤੇ",
        -7.601983547210693
      ],
      [
        "च",
        -7.6104021072387695
      ],
      [
        "न",
        -7.610933780670166
      ],
      [
        "▁কৰা",
        -7.6155781745910645
      ],
      [
        "\"",
        -7.624935626983643
      ],
      [
        "ने",
        -7.630862712860107
      ],
      [
        "▁इस",
        -7.633578300476074
      ],
      [
        "▁लिए",
        -7.6360859870910645
      ],
      [
        "▁পৰা",
        -7.643741607666016
      ],
      [
        "▁যে",
        -7.64569091796875
      ],
      [
        "▁এ",
        -7.645907878875732
      ],
      [
        "▁ଓ",
        -7.646756172180176
      ],
      [
        "▁হয়",
        -7.647555828094482
      ],
      [
        "!",
        -7.656258583068848
      ],
      [
        "ു",
        -7.662625312805176
      ],
      [
        "ଙ୍କ",
        -7.664566516876221
      ],
      [
        "▁नहीं",
        -7.667760372161865
      ],
      [
        "▁तो",
        -7.670788764953613
      ],
      [
        "▁ਵੀ",
        -7.677880764007568
      ],
      [
        "ಗಳು",
        -7.6823272705078125
      ],
      [
        "क",
        -7.689714431762695
      ],
      [
        "▁ఈ",
        -7.694852828979492
      ],
      [
        "▁করে",
        -7.698123455047607
      ],
      [
        "ਾ",
        -7.7038984298706055
      ],
      [
        "ી",
        -7.710022926330566
      ],
      [
        "▁The",
        -7.712009906768799
      ],
      [
        "য়",
        -7.716746807098389
      ],
      [
        "ಯ",
        -7.723889350891113
      ],
      [
        "च्या",
        -7.732860088348389
      ],
      [
        "▁એક",
        -7.7360992431640625
      ],
      [
        "তে",
        -7.7452473640441895
      ],
      [
        "ী",
        -7.746809482574463
      ],
      [
        ";",
        -7.755042552947998
      ],
      [
        "...",
        -7.7796101570129395
      ],
      [
        "த்",
        -7.790816307067871
      ],
      [
        "▁এক",
        -7.798382759094238
      ],
      [
        "ે",
        -7.808516502380371
      ],
      [
        "▁ਸੀ",
        -7.809234142303467
      ],
      [
        "▁हो",
        -7.81062126159668
      ],
      [
        "र",
        -7.813692092895508
      ],
      [
        "ম",
        -7.8424458503723145
      ],
      [
        "▁व",
        -7.843450546264648
      ],
      [
        "▁તે",
        -7.844034194946289
      ],
      [
        "▁మరియు",
        -7.848855972290039
      ],
      [
        "d",
        -7.848998546600342
      ],
      [
        "स",
        -7.851363658905029
      ],
      [
        "ल",
        -7.867215156555176
      ],
      [
        "▁ਕਰਨ",
        -7.870373249053955
      ],
      [
        "ను",
        -7.87069845199585
      ],
      [
        "નો",
        -7.870701313018799
      ],
      [
        "म",
        -7.879481315612793
      ],
      [
        "▁ଏହି",
        -7.879922866821289
      ],
      [
        "া",
        -7.890522003173828
      ],
      [
        "▁with",
        -7.896023273468018
      ],
      [
        "▁ਇਹ",
        -7.899487018585205
      ],
      [
        "ं",
        -7.901997089385986
      ],
      [
        "ని",
        -7.902249813079834
      ],
      [
        "▁ਇੱਕ",
        -7.902347087860107
      ],
      [
        "▁ಈ",
        -7.907886505126953
      ],
      [
        "▁was",
        -7.912679672241211
      ],
      [
        "▁,",
        -7.914865970611572
      ],
      [
        "ੇ",
        -7.919463634490967
      ],
      [
        "▁પર",
        -7.919861793518066
      ],
      [
        "ता",
        -7.926440238952637
      ],
      [
        "ରୁ",
        -7.928281307220459
      ],
      [
        "▁বাবে",
        -7.933478832244873
      ],
      [
        "▁किया",
        -7.9396538734436035
      ],
      [
        "▁પણ",
        -7.944174289703369
      ],
      [
        "ना",
        -7.949007034301758
      ],
      [
        "ത്",
        -7.949664115905762
      ],
      [
        "▁ഒരു",
        -7.959297180175781
      ],
      [
        "ರ",
        -7.9599690437316895
      ],
      [
        "▁જ",
        -7.966621398925781
      ],
      [
        "য়ে",
        -7.967837333679199
      ],
      [
        "து",
        -7.9699625968933105
      ],
      [
        "▁ପାଇଁ",
        -7.9804368019104
      ],
      [
        "টি",
        -7.98512601852417
      ],
      [
        "ల",
        -7.991695880889893
      ],
      [
        "▁থেকে",
        -7.99515438079834
      ],
      [
        "▁ਕੀਤਾ",
        -7.998144626617432
      ],
      [
        "ಿ",
        -8.003270149230957
      ],
      [
        "▁said",
        -8.004730224609375
      ],
      [
        "▁ਕੇ",
        -8.010321617126465
      ],
      [
        "▁by",
        -8.013463973999023
      ],
      [
        "▁था",
        -8.014328956604004
      ],
      [
        "▁as",
        -8.014652252197266
      ],
      [
        "ात",
        -8.021061897277832
      ],
      [
        "ি",
        -8.022143363952637
      ],
      [
        "ಗಳನ್ನು",
        -8.026130676269531
      ],
      [
        "୍",
        -8.03020191192627
      ],
      [
        "కు",
        -8.031493186950684
      ],
      [
        "▁ஒரு",
        -8.032334327697754
      ],
      [
        "▁be",
        -8.034043312072754
      ],
      [
        "ന്",
        -8.034854888916016
      ],
      [
        "ும்",
        -8.036977767944336
      ],
      [
        "ും",
        -8.039575576782227
      ],
      [
        "થી",
        -8.03958511352539
      ],
      [
        "స్",
        -8.039626121520996
      ],
      [
        "▁বুলি",
        -8.045184135437012
      ],
      [
        "ு",
        -8.045195579528809
      ],
      [
        "గా",
        -8.04636287689209
      ],
      [
        "ো",
        -8.04959774017334
      ],
      [
        "ਨ",
        -8.056154251098633
      ],
      [
        "ನ",
        -8.064457893371582
      ],
      [
        "▁ఒక",
        -8.0665864944458
      ],
      [
        "▁2",
        -8.075023651123047
      ],
      [
        "t",
        -8.079691886901855
      ],
      [
        "▁ਕਰ",
        -8.079806327819824
      ],
      [
        "க்கு",
        -8.079825401306152
      ],
      [
        "লৈ",
        -8.080058097839355
      ],
      [
        "▁ਉਨ੍ਹਾਂ",
        -8.08230209350586
      ],
      [
        "▁यह",
        -8.085175514221191
      ],
      [
        "▁कहा",
        -8.089156150817871
      ],
      [
        "▁কৰে",
        -8.092427253723145
      ],
      [
        "▁has",
        -8.0968017578125
      ],
      [
        "ಗಳ",
        -8.10029125213623
      ],
      [
        "▁ਹੋ",
        -8.101141929626465
      ],
      [
        "▁হৈ",
        -8.103825569152832
      ],
      [
        "▁কথা",
        -8.113387107849121
      ],
      [
        "▁ਗਿਆ",
        -8.113662719726562
      ],
      [
        "▁સાથે",
        -8.114118576049805
      ],
      [
        "▁at",
        -8.115312576293945
      ],
      [
        "রা",
        -8.115726470947266
      ],
      [
        "ಗೆ",
        -8.116278648376465
      ],
      [
        "▁गया",
        -8.118535041809082
      ],
      [
        "ક",
        -8.118711471557617
      ],
      [
        "യ",
        -8.123881340026855
      ],
      [
        "ही",
        -8.125642776489258
      ],
      [
        "ി",
        -8.12989330291748
      ],
      [
        "ਲ",
        -8.131844520568848
      ],
      [
        "ి",
        -8.135005950927734
      ],
      [
        "/",
        -8.137796401977539
      ],
      [
        "▁करने",
        -8.143288612365723
      ],
      [
        "▁বা",
        -8.144320487976074
      ],
      [
        "யில்",
        -8.148846626281738
      ],
      [
        "▁இந்த",
        -8.150193214416504
      ],
      [
        "ವನ್ನು",
        -8.151172637939453
      ],
      [
        "▁என்று",
        -8.153718948364258
      ],
      [
        "ਸ",
        -8.156362533569336
      ],
      [
        "ര്",
        -8.158414840698242
      ],
      [
        "ய",
        -8.158967971801758
      ],
      [
        "ਕ",
        -8.16059684753418
      ],
      [
        "ಲು",
        -8.162080764770508
      ],
      [
        "▁10",
        -8.167932510375977
      ],
      [
        "▁from",
        -8.170576095581055
      ],
      [
        "▁–",
        -8.172901153564453
      ],
      [
        "चा",
        -8.174211502075195
      ],
      [
        "▁সেই",
        -8.185025215148926
      ],
      [
        "ले",
        -8.187836647033691
      ],
      [
        "▁ਹੀ",
        -8.194597244262695
      ],
      [
        "▁કરી",
        -8.196396827697754
      ],
      [
        "ದಲ್ಲಿ",
        -8.199922561645508
      ],
      [
        "▁অ",
        -8.200905799865723
      ],
      [
        "चे",
        -8.205726623535156
      ],
      [
        "ன்",
        -8.212759017944336
      ],
      [
        "▁ಎಂದು",
        -8.214350700378418
      ],
      [
        "▁it",
        -8.215353012084961
      ],
      [
        "স",
        -8.216029167175293
      ],
      [
        "ली",
        -8.216185569763184
      ],
      [
        "▁न",
        -8.219856262207031
      ],
      [
        "ರು",
        -8.219953536987305
      ],
      [
        "▁3",
        -8.221902847290039
      ],
      [
        "▁साथ",
        -8.222574234008789
      ],
      [
        "▁1",
        -8.225889205932617
      ],
      [
        "ly",
        -8.227380752563477
      ],
      [
        "ା",
        -8.229840278625488
      ],
      [
        "▁లో",
        -8.229891777038574
      ],
      [
        "▁কিন্তু",
        -8.233885765075684
      ],
      [
        "മ",
        -8.234256744384766
      ],
      [
        "ન",
        -8.235433578491211
      ],
      [
        "નું",
        -8.243073463439941
      ],
      [
        "দের",
        -8.24361515045166
      ],
      [
        "ು",
        -8.246030807495117
      ],
      [
        "▁नाही",
        -8.246262550354004
      ],
      [
        "লে",
        -8.24830436706543
      ],
      [
        "▁করা",
        -8.248942375183105
      ],
      [
        "▁ఆ",
        -8.249873161315918
      ],
      [
        "களை",
        -8.255352973937988
      ],
      [
        "▁ਨਹੀਂ",
        -8.255645751953125
      ],
      [
        "ଙ୍କୁ",
        -8.259910583496094
      ],
      [
        "న",
        -8.263184547424316
      ],
      [
        "▁তিনি",
        -8.263916969299316
      ],
      [
        "▁are",
        -8.265178680419922
      ],
      [
        "ર",
        -8.266282081604004
      ],
      [
        "▁have",
        -8.272317886352539
      ],
      [
        "ಕ್ಕೆ",
        -8.28145694732666
      ],
      [
        "▁ସେ",
        -8.28155517578125
      ],
      [
        "▁हे",
        -8.284733772277832
      ],
      [
        "സ്",
        -8.285677909851074
      ],
      [
        "▁जा",
        -8.289438247680664
      ],
      [
        "କ",
        -8.29343318939209
      ],
      [
        "த்தில்",
        -8.30461311340332
      ],
      [
        "ड",
        -8.306811332702637
      ],
      [
        "ਮ",
        -8.308236122131348
      ],
      [
        "ే",
        -8.309263229370117
      ],
      [
        "તા",
        -8.309501647949219
      ],
      [
        "ਤ",
        -8.312630653381348
      ],
      [
        "▁बाद",
        -8.315292358398438
      ],
      [
        "er",
        -8.315905570983887
      ],
      [
        "कर",
        -8.31616497039795
      ],
      [
        "ट",
        -8.3181791305542
      ],
      [
        "తో",
        -8.31837272644043
      ],
      [
        "ಸ್",
        -8.320478439331055
      ],
      [
        "▁5",
        -8.331003189086914
      ],
      [
        "▁ਕਿਹਾ",
        -8.334491729736328
      ],
      [
        "▁କରି",
        -8.336112022399902
      ],
      [
        "ാ",
        -8.336224555969238
      ],
      [
        "▁এবং",
        -8.336762428283691
      ],
      [
        "ची",
        -8.339279174804688
      ],
      [
        "▁आहेत",
        -8.343897819519043
      ],
      [
        "ர்",
        -8.348538398742676
      ],
      [
        "ை",
        -8.35473346710205
      ],
      [
        "મ",
        -8.357917785644531
      ],
      [
        "▁A",
        -8.358628273010254
      ],
      [
        "টা",
        -8.360315322875977
      ],
      [
        "”",
        -8.361736297607422
      ],
      [
        "▁কৰাৰ",
        -8.362418174743652
      ],
      [
        "ಕ",
        -8.363092422485352
      ],
      [
        "▁ক",
        -8.363615036010742
      ],
      [
        "वर",
        -8.365976333618164
      ],
      [
        "ਰ",
        -8.366451263427734
      ],
      [
        "ज",
        -8.36847972869873
      ],
      [
        "▁বি",
        -8.368538856506348
      ],
      [
        "e",
        -8.37312126159668
      ],
      [
        "▁ਕੀਤੀ",
        -8.374163627624512
      ],
      [
        "নি",
        -8.374554634094238
      ],
      [
        "യുടെ",
        -8.376811027526855
      ],
      [
        "­",
        -8.377019882202148
      ],
      [
        "யை",
        -8.377976417541504
      ],
      [
        "એ",
        -8.37899112701416
      ],
      [
        "তা",
        -8.381190299987793
      ],
      [
        "▁അ",
        -8.38460922241211
      ],
      [
        "ు",
        -8.384849548339844
      ],
      [
        "▁ਉਸ",
        -8.387582778930664
      ],
      [
        "व",
        -8.38813591003418
      ],
      [
        "▁will",
        -8.389185905456543
      ],
      [
        "▁ਉਹ",
        -8.396220207214355
      ],
      [
        "ುವ",
        -8.400045394897461
      ],
      [
        "യും",
        -8.40684700012207
      ],
      [
        "க்க",
        -8.407014846801758
      ],
      [
        "না",
        -8.411298751831055
      ],
      [
        "▁ਜੋ",
        -8.411416053771973
      ],
      [
        "▁आ",
        -8.412185668945312
      ],
      [
        "લ",
        -8.41228199005127
      ],
      [
        "க",
        -8.415480613708496
      ],
      [
        "प",
        -8.420191764831543
      ],
      [
        "▁ଏକ",
        -8.422403335571289
      ],
      [
        "▁ਪਰ",
        -8.422844886779785
      ],
      [
        "కి",
        -8.423142433166504
      ],
      [
        "▁ਇਕ",
        -8.425287246704102
      ],
      [
        "▁હતી",
        -8.427990913391113
      ],
      [
        "ல்",
        -8.431100845336914
      ],
      [
        "▁જે",
        -8.431303977966309
      ],
      [
        "ନ",
        -8.435993194580078
      ],
      [
        "▁he",
        -8.437986373901367
      ],
      [
        "y",
        -8.438456535339355
      ],
      [
        "▁4",
        -8.440768241882324
      ],
      [
        "ி",
        -8.44091510772705
      ],
      [
        "▁ಅ",
        -8.44456958770752
      ],
      [
        "▁એ",
        -8.44505500793457
      ],
      [
        "▁হৈছে",
        -8.445841789245605
      ],
      [
        "▁ਜਾ",
        -8.446126937866211
      ],
      [
        "▁হয়েছে",
        -8.44881820678711
      ],
      [
        "క",
        -8.4497709274292
      ],
      [
        "▁अ",
        -8.4511137008667
      ],
      [
        "ச்",
        -8.454227447509766
      ],
      [
        "▁I",
        -8.455840110778809
      ],
      [
        "▁not",
        -8.459662437438965
      ],
      [
        "▁আছে",
        -8.460631370544434
      ],
      [
        "द",
        -8.465351104736328
      ],
      [
        "ৰে",
        -8.466302871704102
      ],
      [
        "▁ഈ",
        -8.467477798461914
      ],
      [
        "ా",
        -8.467755317687988
      ],
      [
        "ில்",
        -8.468648910522461
      ],
      [
        "ർ",
        -8.472171783447266
      ],
      [
        "ਣ",
        -8.47322940826416
      ],
      [
        "▁তার",
        -8.476521492004395
      ],
      [
        "ില്",
        -8.478486061096191
      ],
      [
        "▁दिया",
        -8.478672981262207
      ],
      [
        "ന",
        -8.479606628417969
      ],
      [
        "▁रहे",
        -8.4804048538208
      ],
      [
        "▁নিয়ে",
        -8.481488227844238
      ],
      [
        "▁’",
        -8.484352111816406
      ],
      [
        "▁अपने",
        -8.485257148742676
      ],
      [
        "ते",
        -8.486721992492676
      ],
      [
        "▁તો",
        -8.488998413085938
      ],
      [
        "▁কৰিব",
        -8.493192672729492
      ],
      [
        "▁এটা",
        -8.495011329650879
      ],
      [
        "ൻ",
        -8.496681213378906
      ],
      [
        "ू",
        -8.498113632202148
      ],
      [
        "ర్",
        -8.499338150024414
      ],
      [
        "al",
        -8.501669883728027
      ],
      [
        "▁सरकार",
        -8.50246810913086
      ],
      [
        "સ",
        -8.503475189208984
      ],
      [
        "ത",
        -8.504254341125488
      ],
      [
        "வ",
        -8.506035804748535
      ],
      [
        "▁লগতে",
        -8.507163047790527
      ],
      [
        "▁નથી",
        -8.507467269897461
      ],
      [
        "টো",
        -8.508218765258789
      ],
      [
        "▁जो",
        -8.513813018798828
      ],
      [
        "▁होते",
        -8.514988899230957
      ],
      [
        "প",
        -8.515666961669922
      ],
      [
        "த்தை",
        -8.5186128616333
      ],
      [
        "লা",
        -8.519075393676758
      ],
      [
        "▁ପରେ",
        -8.519099235534668
      ],
      [
        "▁സ്",
        -8.519577026367188
      ],
      [
        "▁तर",
        -8.520155906677246
      ],
      [
        "▁আর",
        -8.525025367736816
      ],
      [
        "ല്",
        -8.526753425598145
      ],
      [
        "▁হবে",
        -8.52679443359375
      ],
      [
        "▁ବି",
        -8.527791023254395
      ],
      [
        "ট",
        -8.52975082397461
      ],
      [
        "ನ್",
        -8.533734321594238
      ],
      [
        "ब",
        -8.533989906311035
      ],
      [
        "ஸ்",
        -8.538119316101074
      ],
      [
        "▁ते",
        -8.541765213012695
      ],
      [
        "▁his",
        -8.543367385864258
      ],
      [
        "▁an",
        -8.543600082397461
      ],
      [
        "ਿਆ",
        -8.544323921203613
      ],
      [
        "▁অসম",
        -8.544522285461426
      ],
      [
        "▁ମଧ୍ୟ",
        -8.545134544372559
      ],
      [
        "ారు",
        -8.548795700073242
      ],
      [
        "ਟ",
        -8.549456596374512
      ],
      [
        "ਆਂ",
        -8.549498558044434
      ],
      [
        "▁ବୋଲି",
        -8.555241584777832
      ],
      [
        "▁அ",
        -8.55975341796875
      ],
      [
        "ମ",
        -8.559816360473633
      ],
      [
        "▁रहा",
        -8.560373306274414
      ],
      [
        "▁तक",
        -8.56072998046875
      ],
      [
        "▁हुए",
        -8.561347007751465
      ],
      [
        "ो",
        -8.562920570373535
      ],
      [
        "த்த",
        -8.562949180603027
      ],
      [
        "(",
        -8.56313705444336
      ],
      [
        "త",
        -8.5645751953125
      ],
      [
        "ம",
        -8.564733505249023
      ],
      [
        "▁ആ",
        -8.565045356750488
      ],
      [
        "వ",
        -8.565899848937988
      ],
      [
        "▁জন্য",
        -8.5684814453125
      ],
      [
        "വ",
        -8.570394515991211
      ],
      [
        "ర",
        -8.572413444519043
      ],
      [
        "▁কোনো",
        -8.578988075256348
      ],
      [
        "▁यांनी",
        -8.584121704101562
      ],
      [
        "▁ਵੱਲੋਂ",
        -8.584891319274902
      ],
      [
        "ட்",
        -8.585036277770996
      ],
      [
        "▁ಒಂದು",
        -8.586833000183105
      ],
      [
        "▁আমি",
        -8.589383125305176
      ],
      [
        "ઓ",
        -8.593935012817383
      ],
      [
        "▁ଏବଂ",
        -8.59540843963623
      ],
      [
        "ల్",
        -8.596376419067383
      ],
      [
        "ക",
        -8.603748321533203
      ],
      [
        "ాలు",
        -8.604328155517578
      ],
      [
        "▁என",
        -8.605172157287598
      ],
      [
        "▁ਤਾਂ",
        -8.605915069580078
      ],
      [
        "▁থকা",
        -8.607195854187012
      ],
      [
        "▁বিভিন্ন",
        -8.60788631439209
      ],
      [
        "▁ਨਾ",
        -8.610255241394043
      ],
      [
        "ून",
        -8.610504150390625
      ],
      [
        "న్",
        -8.61123275756836
      ],
      [
        "ଟି",
        -8.611577033996582
      ],
      [
        "),",
        -8.611928939819336
      ],
      [
        "n",
        -8.612004280090332
      ],
      [
        "▁అ",
        -8.617177963256836
      ],
      [
        "ଲ",
        -8.617274284362793
      ],
      [
        "ા",
        -8.617949485778809
      ],
      [
        "▁কি",
        -8.619729995727539
      ],
      [
        "▁हा",
        -8.621319770812988
      ],
      [
        "জ",
        -8.623316764831543
      ],
      [
        "▁काम",
        -8.623334884643555
      ],
      [
        "ಲ್",
        -8.62429428100586
      ],
      [
        "▁ସହ",
        -8.627506256103516
      ],
      [
        "▁12",
        -8.627789497375488
      ],
      [
        "വും",
        -8.632832527160645
      ],
      [
        "▁6",
        -8.633570671081543
      ],
      [
        "▁थी",
        -8.634330749511719
      ],
      [
        "ವ",
        -8.635334968566895
      ],
      [
        "▁এখন",
        -8.635499000549316
      ],
      [
        "▁होता",
        -8.63668441772461
      ],
      [
        "▁19",
        -8.638654708862305
      ],
      [
        "ಯಲ್ಲಿ",
        -8.639204025268555
      ],
      [
        "ன",
        -8.639400482177734
      ],
      [
        "▁रही",
        -8.639595031738281
      ],
      [
        "▁மற்றும்",
        -8.6398286819458
      ],
      [
        "மாக",
        -8.640981674194336
      ],
      [
        "క్",
        -8.642107009887695
      ],
      [
        "ି",
        -8.642767906188965
      ],
      [
        "ര",
        -8.642842292785645
      ],
      [
        "▁ਆਪਣੇ",
        -8.647205352783203
      ],
      [
        "మ",
        -8.653823852539062
      ],
      [
        "ట్",
        -8.65476131439209
      ],
      [
        "ବ",
        -8.65479564666748
      ],
      [
        "ല",
        -8.656708717346191
      ],
      [
        "യില്",
        -8.656951904296875
      ],
      [
        "i",
        -8.660004615783691
      ],
      [
        "▁તમે",
        -8.6616792678833
      ],
      [
        "▁కూడా",
        -8.662825584411621
      ],
      [
        "ં",
        -8.663443565368652
      ],
      [
        "▁20",
        -8.663538932800293
      ],
      [
        "પ",
        -8.66825008392334
      ],
      [
        "▁কৰিছে",
        -8.668641090393066
      ],
      [
        "்",
        -8.67017650604248
      ],
      [
        "ங்கள்",
        -8.67061996459961
      ],
      [
        "ಸ",
        -8.672016143798828
      ],
      [
        "ટ",
        -8.672712326049805
      ],
      [
        "দ",
        -8.673602104187012
      ],
      [
        "ಯನ್ನು",
        -8.673996925354004
      ],
      [
        "a",
        -8.674032211303711
      ],
      [
        "▁দিয়ে",
        -8.676884651184082
      ],
      [
        "▁করতে",
        -8.680657386779785
      ],
      [
        "ಾ",
        -8.68132209777832
      ],
      [
        "▁তা",
        -8.68140697479248
      ],
      [
        "শ",
        -8.686056137084961
      ],
      [
        "▁आज",
        -8.686257362365723
      ],
      [
        "य",
        -8.687481880187988
      ],
      [
        "িত",
        -8.692741394042969
      ],
      [
        "ക്ക",
        -8.695578575134277
      ],
      [
        "in",
        -8.696765899658203
      ],
      [
        "▁India",
        -8.697281837463379
      ],
      [
        "বি",
        -8.69796371459961
      ],
      [
        "ाच्या",
        -8.699575424194336
      ],
      [
        "▁ਜਿਸ",
        -8.700389862060547
      ],
      [
        "േ",
        -8.701988220214844
      ],
      [
        "ാണ്",
        -8.70248031616211
      ],
      [
        "্য",
        -8.703817367553711
      ],
      [
        "▁અ",
        -8.704654693603516
      ],
      [
        "▁হোৱা",
        -8.705138206481934
      ],
      [
        "रा",
        -8.70553207397461
      ],
      [
        "த",
        -8.706605911254883
      ],
      [
        "▁க",
        -8.70687198638916
      ],
      [
        "▁ਦੀਆਂ",
        -8.707854270935059
      ],
      [
        "▁15",
        -8.708695411682129
      ],
      [
        "▁ಆ",
        -8.712509155273438
      ],
      [
        "ിൽ",
        -8.712692260742188
      ],
      [
        "ण",
        -8.716460227966309
      ],
      [
        "▁S",
        -8.718327522277832
      ],
      [
        "▁थे",
        -8.719914436340332
      ],
      [
        "ছে",
        -8.721197128295898
      ],
      [
        "ि",
        -8.721331596374512
      ],
      [
        "श",
        -8.722177505493164
      ],
      [
        "मध्ये",
        -8.723470687866211
      ],
      [
        "▁ಅವರು",
        -8.723483085632324
      ],
      [
        "ਜ",
        -8.725265502929688
      ],
      [
        "ವಾಗಿ",
        -8.727547645568848
      ],
      [
        "▁लेकिन",
        -8.728116989135742
      ],
      [
        "▁সময়",
        -8.729070663452148
      ],
      [
        "▁उन्होंने",
        -8.729400634765625
      ],
      [
        "▁had",
        -8.730705261230469
      ],
      [
        "ంగా",
        -8.730871200561523
      ],
      [
        "ರ್",
        -8.734505653381348
      ],
      [
        "▁লৈ",
        -8.734633445739746
      ],
      [
        "ঃ",
        -8.735525131225586
      ],
      [
        "▁স",
        -8.735661506652832
      ],
      [
        "െ",
        -8.736066818237305
      ],
      [
        "ୀ",
        -8.737642288208008
      ],
      [
        "▁भारत",
        -8.74006175994873
      ],
      [
        "▁ન",
        -8.74074935913086
      ],
      [
        "▁this",
        -8.742180824279785
      ],
      [
        "्स",
        -8.742276191711426
      ],
      [
        "റ",
        -8.742317199707031
      ],
      [
        "▁गई",
        -8.742667198181152
      ],
      [
        "▁இ",
        -8.744922637939453
      ],
      [
        "ବା",
        -8.745199203491211
      ],
      [
        "▁ക",
        -8.746532440185547
      ],
      [
        "▁ਪੰਜਾਬ",
        -8.747014045715332
      ],
      [
        "யின்",
        -8.748028755187988
      ],
      [
        "▁আ",
        -8.748529434204102
      ],
      [
        "ാന്",
        -8.750142097473145
      ],
      [
        "ാൻ",
        -8.750758171081543
      ],
      [
        "▁ই",
        -8.752413749694824
      ],
      [
        "ൽ",
        -8.754191398620605
      ],
      [
        "ং",
        -8.755940437316895
      ],
      [
        "▁একটি",
        -8.758030891418457
      ],
      [
        "ர",
        -8.758779525756836
      ],
      [
        "ੋ",
        -8.759568214416504
      ],
      [
        "▁8",
        -8.760887145996094
      ],
      [
        "ిన",
        -8.761737823486328
      ],
      [
        "री",
        -8.762426376342773
      ],
      [
        "▁యొక్క",
        -8.76395320892334
      ],
      [
        "▁ନେଇ",
        -8.764668464660645
      ],
      [
        "ிய",
        -8.764704704284668
      ],
      [
        "ಟ್",
        -8.767021179199219
      ],
      [
        "സ",
        -8.770941734313965
      ],
      [
        "es",
        -8.773113250732422
      ],
      [
        "ੀਆਂ",
        -8.775755882263184
      ],
      [
        "ित",
        -8.7777681350708
      ],
      [
        "হ",
        -8.77791690826416
      ],
      [
        "ડ",
        -8.779234886169434
      ],
      [
        "▁होती",
        -8.779777526855469
      ],
      [
        "▁যায়",
        -8.78064250946045
      ],
      [
        "▁वह",
        -8.780767440795898
      ],
      [
        "▁also",
        -8.781989097595215
      ],
      [
        "▁ਗਈ",
        -8.784664154052734
      ],
      [
        "▁সে",
        -8.785004615783691
      ],
      [
        "▁କରିବା",
        -8.785379409790039
      ],
      [
        "ார்",
        -8.78683090209961
      ],
      [
        "▁বলেন",
        -8.78750991821289
      ],
      [
        "ग",
        -8.7883882522583
      ],
      [
        "▁வேண்டும்",
        -8.788451194763184
      ],
      [
        "▁সঙ্গে",
        -8.78882884979248
      ],
      [
        "▁स",
        -8.788933753967285
      ],
      [
        "ல",
        -8.789824485778809
      ],
      [
        "▁হয়ে",
        -8.791376113891602
      ],
      [
        "মা",
        -8.792330741882324
      ],
      [
        "▁which",
        -8.79409408569336
      ],
      [
        "▁their",
        -8.794352531433105
      ],
      [
        "नी",
        -8.796144485473633
      ],
      [
        "▁ਸ",
        -8.798717498779297
      ],
      [
        "▁ਸਨ",
        -8.799469947814941
      ],
      [
        "লি",
        -8.799943923950195
      ],
      [
        "▁હોય",
        -8.800970077514648
      ],
      [
        "ങ്ങൾ",
        -8.802703857421875
      ],
      [
        "▁ਰਹੇ",
        -8.805891990661621
      ],
      [
        "ೆ",
        -8.806600570678711
      ],
      [
        "▁তেওঁ",
        -8.808181762695312
      ],
      [
        "ின்",
        -8.808517456054688
      ],
      [
        "▁been",
        -8.809110641479492
      ],
      [
        "ക്ക്",
        -8.812409400939941
      ],
      [
        "ത്ത",
        -8.812780380249023
      ],
      [
        "▁নাই",
        -8.81518268585205
      ],
      [
        "▁৷",
        -8.817950248718262
      ],
      [
        "▁அவர்",
        -8.819750785827637
      ],
      [
        "▁જો",
        -8.820040702819824
      ],
      [
        "▁কয়",
        -8.82099723815918
      ],
      [
        "▁ब",
        -8.822432518005371
      ],
      [
        "ா",
        -8.823034286499023
      ],
      [
        "▁હતો",
        -8.82652759552002
      ],
      [
        "ുന്ന",
        -8.829178810119629
      ],
      [
        "কা",
        -8.83017635345459
      ],
      [
        "ந்த",
        -8.832009315490723
      ],
      [
        "▁என்ற",
        -8.835021018981934
      ],
      [
        "▁କରିଥିଲେ",
        -8.83582592010498
      ],
      [
        "▁7",
        -8.836091995239258
      ],
      [
        "▁कुछ",
        -8.836313247680664
      ],
      [
        "ವು",
        -8.836661338806152
      ],
      [
        "েই",
        -8.839612007141113
      ],
      [
        "▁ये",
        -8.840524673461914
      ],
      [
        "▁11",
        -8.840624809265137
      ],
      [
        "யும்",
        -8.842354774475098
      ],
      [
        "ਸ਼",
        -8.84618854522705
      ],
      [
        "യാണ്",
        -8.848264694213867
      ],
      [
        "ई",
        -8.848775863647461
      ],
      [
        "த்து",
        -8.850370407104492
      ],
      [
        "वा",
        -8.850716590881348
      ],
      [
        "ਜ਼",
        -8.85106372833252
      ],
      [
        "▁அந்த",
        -8.85157585144043
      ],
      [
        "ती",
        -8.852049827575684
      ],
      [
        "▁എന്ന",
        -8.852458953857422
      ],
      [
        "నే",
        -8.85412311553955
      ],
      [
        "മായ",
        -8.854416847229004
      ],
      [
        "▁മ",
        -8.85644245147705
      ],
      [
        "ങ്ങള്",
        -8.857843399047852
      ],
      [
        "▁আজি",
        -8.859396934509277
      ],
      [
        "▁who",
        -8.859418869018555
      ],
      [
        "தான்",
        -8.859993934631348
      ],
      [
        "್",
        -8.861416816711426
      ],
      [
        "▁आप",
        -8.862034797668457
      ],
      [
        "മായി",
        -8.863635063171387
      ],
      [
        "ाने",
        -8.863738059997559
      ],
      [
        "▁পর",
        -8.864604949951172
      ],
      [
        "▁বলে",
        -8.864714622497559
      ],
      [
        "ಕ್",
        -8.865991592407227
      ],
      [
        "ത്തില്",
        -8.867439270019531
      ],
      [
        "▁নি",
        -8.868888854980469
      ],
      [
        "খন",
        -8.868948936462402
      ],
      [
        "ह",
        -8.869586944580078
      ],
      [
        "▁केली",
        -8.869609832763672
      ],
      [
        "▁करते",
        -8.870390892028809
      ],
      [
        "ിന്റെ",
        -8.871014595031738
      ],
      [
        "▁હતા",
        -8.872794151306152
      ],
      [
        "ాన్ని",
        -8.87342357635498
      ],
      [
        "▁આવે",
        -8.873591423034668
      ],
      [
        "▁were",
        -8.873910903930664
      ],
      [
        "ਪ",
        -8.873973846435547
      ],
      [
        "യിൽ",
        -8.874755859375
      ],
      [
        "▁ਦਿੱਤਾ",
        -8.874813079833984
      ],
      [
        "రి",
        -8.875446319580078
      ],
      [
        "ৰা",
        -8.876145362854004
      ],
      [
        "▁ল",
        -8.87667465209961
      ],
      [
        "ਤਾ",
        -8.877214431762695
      ],
      [
        "▁ಇದು",
        -8.879279136657715
      ],
      [
        "▁ਸਰਕਾਰ",
        -8.879304885864258
      ],
      [
        "▁কৰিবলৈ",
        -8.879732131958008
      ],
      [
        "ଲା",
        -8.879902839660645
      ],
      [
        "ियों",
        -8.880511283874512
      ],
      [
        "▁કરવા",
        -8.8805570602417
      ],
      [
        "▁पहले",
        -8.880772590637207
      ],
      [
        "▁9",
        -8.881918907165527
      ],
      [
        "▁કરવામાં",
        -8.883755683898926
      ],
      [
        "▁নাম",
        -8.88654613494873
      ],
      [
        "டி",
        -8.886635780334473
      ],
      [
        "વ",
        -8.88725757598877
      ],
      [
        "▁अब",
        -8.887280464172363
      ],
      [
        "▁दी",
        -8.891509056091309
      ],
      [
        "▁18",
        -8.892618179321289
      ],
      [
        "▁ଆ",
        -8.89694595336914
      ],
      [
        "▁देश",
        -8.898479461669922
      ],
      [
        "ତା",
        -8.898842811584473
      ],
      [
        "চ",
        -8.901942253112793
      ],
      [
        "ಿದೆ",
        -8.902280807495117
      ],
      [
        "▁সভাপতি",
        -8.904558181762695
      ],
      [
        "▁होने",
        -8.907139778137207
      ],
      [
        "o",
        -8.909318923950195
      ],
      [
        "▁ଅ",
        -8.910348892211914
      ],
      [
        "களில்",
        -8.911715507507324
      ],
      [
        "▁প্র",
        -8.912141799926758
      ],
      [
        "re",
        -8.915515899658203
      ],
      [
        "▁অভিযোগ",
        -8.915658950805664
      ],
      [
        "হে",
        -8.916531562805176
      ],
      [
        "▁ਹੋਰ",
        -8.916784286499023
      ],
      [
        "യെ",
        -8.920757293701172
      ],
      [
        "ছ",
        -8.92154312133789
      ],
      [
        "গ",
        -8.922989845275879
      ],
      [
        "▁/",
        -8.923294067382812
      ],
      [
        "વા",
        -8.924468040466309
      ],
      [
        "▁വി",
        -8.924772262573242
      ],
      [
        "्",
        -8.9266357421875
      ],
      [
        "▁করেন",
        -8.929374694824219
      ],
      [
        "▁গ",
        -8.930526733398438
      ],
      [
        "வி",
        -8.93122673034668
      ],
      [
        "या",
        -8.933119773864746
      ],
      [
        "ത്തിൽ",
        -8.93400764465332
      ],
      [
        "▁କରିଛନ୍ତି",
        -8.934781074523926
      ],
      [
        "▁অনুষ্ঠিত",
        -8.935129165649414
      ],
      [
        "ಲ",
        -8.937063217163086
      ],
      [
        "▁શકે",
        -8.940131187438965
      ],
      [
        "▁હતું",
        -8.942319869995117
      ],
      [
        "மா",
        -8.942708015441895
      ],
      [
        "▁ਆ",
        -8.943074226379395
      ],
      [
        "ರಿ",
        -8.943957328796387
      ],
      [
        "▁സി",
        -8.945990562438965
      ],
      [
        "வை",
        -8.947127342224121
      ],
      [
        "▁लोगों",
        -8.948868751525879
      ],
      [
        "का",
        -8.948887825012207
      ],
      [
        "▁চি",
        -8.952075004577637
      ],
      [
        "சி",
        -8.953551292419434
      ],
      [
        "ाला",
        -8.957183837890625
      ],
      [
        "தி",
        -8.957834243774414
      ],
      [
        "▁క",
        -8.959432601928711
      ],
      [
        "లను",
        -8.959924697875977
      ],
      [
        "ப",
        -8.960535049438477
      ],
      [
        "▁ବେଳେ",
        -8.961301803588867
      ],
      [
        "▁ਗਏ",
        -8.96170425415039
      ],
      [
        "▁30",
        -8.962364196777344
      ],
      [
        "▁રીતે",
        -8.96316146850586
      ],
      [
        "ाचा",
        -8.963794708251953
      ],
      [
        "▁உள்ள",
        -8.964347839355469
      ],
      [
        "r",
        -8.96509075164795
      ],
      [
        "▁দিন",
        -8.965409278869629
      ],
      [
        "▁দল",
        -8.965598106384277
      ],
      [
        "▁वाले",
        -8.969930648803711
      ],
      [
        "▁ಹಾಗೂ",
        -8.972688674926758
      ],
      [
        "ਦ",
        -8.972929000854492
      ],
      [
        "▁অসমৰ",
        -8.972990989685059
      ],
      [
        "ே",
        -8.973169326782227
      ],
      [
        "▁कोई",
        -8.9732027053833
      ],
      [
        "മാണ്",
        -8.974754333496094
      ],
      [
        "ाची",
        -8.975141525268555
      ],
      [
        "বা",
        -8.975153923034668
      ],
      [
        "ింది",
        -8.975822448730469
      ],
      [
        "పై",
        -8.97665786743164
      ],
      [
        "▁మీరు",
        -8.978092193603516
      ],
      [
        "வர்",
        -8.98103141784668
      ],
      [
        "▁এর",
        -8.981720924377441
      ],
      [
        "ळ",
        -8.98355770111084
      ],
      [
        "ু",
        -8.984430313110352
      ],
      [
        "ப்ப",
        -8.986431121826172
      ],
      [
        "▁पुलिस",
        -8.986553192138672
      ],
      [
        "▁ਰਿਹਾ",
        -8.988605499267578
      ],
      [
        "ണ",
        -8.988606452941895
      ],
      [
        "ਬ",
        -8.991806030273438
      ],
      [
        "ಗಳಲ್ಲಿ",
        -8.993772506713867
      ],
      [
        "▁सिंह",
        -8.995955467224121
      ],
      [
        "िक",
        -8.996706008911133
      ],
      [
        "▁ନ",
        -8.996808052062988
      ],
      [
        "▁अपनी",
        -8.996883392333984
      ],
      [
        "▁వి",
        -8.997568130493164
      ],
      [
        "య",
        -8.997620582580566
      ],
      [
        "▁or",
        -8.998006820678711
      ],
      [
        "▁ব",
        -8.99831485748291
      ],
      [
        "மான",
        -8.998590469360352
      ],
      [
        "▁ఇది",
        -8.99863338470459
      ],
      [
        "▁ਹੋਏ",
        -8.999295234680176
      ],
      [
        "িক",
        -9.00046443939209
      ],
      [
        "ോ",
        -9.000839233398438
      ],
      [
        "▁गए",
        -9.000969886779785
      ],
      [
        "ಗ",
        -9.002227783203125
      ],
      [
        "▁આવી",
        -9.003613471984863
      ],
      [
        "▁দেখা",
        -9.003922462463379
      ],
      [
        "▁દ્વારા",
        -9.003973960876465
      ],
      [
        "▁নতুন",
        -9.004465103149414
      ],
      [
        "▁पण",
        -9.004960060119629
      ],
      [
        "मा",
        -9.005134582519531
      ],
      [
        "డ్",
        -9.008149147033691
      ],
      [
        "▁In",
        -9.00817584991455
      ],
      [
        "▁काही",
        -9.008594512939453
      ],
      [
        "▁ਦੱਸਿਆ",
        -9.009940147399902
      ],
      [
        "ସ",
        -9.01246452331543
      ],
      [
        "େ",
        -9.012901306152344
      ],
      [
        "▁মধ্যে",
        -9.012974739074707
      ],
      [
        "ச",
        -9.014066696166992
      ],
      [
        "▁म",
        -9.014474868774414
      ],
      [
        "ക്",
        -9.01565933227539
      ],
      [
        "▁ਬਾਅਦ",
        -9.016240119934082
      ],
      [
        "▁its",
        -9.016483306884766
      ],
      [
        "▁ಆದರೆ",
        -9.016716957092285
      ],
      [
        "জন",
        -9.016797065734863
      ],
      [
        "ਲਾ",
        -9.018404006958008
      ],
      [
        "ਡ",
        -9.018667221069336
      ],
      [
        "▁असे",
        -9.018852233886719
      ],
      [
        "▁কিছু",
        -9.019185066223145
      ],
      [
        "▁উ",
        -9.021244049072266
      ],
      [
        "ପ",
        -9.022001266479492
      ],
      [
        "ப்பு",
        -9.02275562286377
      ],
      [
        "▁इसके",
        -9.024845123291016
      ],
      [
        "▁కు",
        -9.024986267089844
      ],
      [
        "ുക",
        -9.025136947631836
      ],
      [
        "▁പി",
        -9.025445938110352
      ],
      [
        "▁ਮੌਕੇ",
        -9.025808334350586
      ],
      [
        "▁তথা",
        -9.025833129882812
      ],
      [
        "જ",
        -9.027286529541016
      ],
      [
        "ત",
        -9.027888298034668
      ],
      [
        "▁পি",
        -9.028510093688965
      ],
      [
        "▁પરંતુ",
        -9.029389381408691
      ],
      [
        "ਹ",
        -9.03020191192627
      ],
      [
        "▁केले",
        -9.032378196716309
      ],
      [
        "▁કરે",
        -9.035669326782227
      ],
      [
        "▁എ",
        -9.036306381225586
      ],
      [
        "▁C",
        -9.036453247070312
      ],
      [
        "▁ನೀವು",
        -9.037936210632324
      ],
      [
        "▁కోసం",
        -9.039100646972656
      ],
      [
        "గ",
        -9.03925609588623
      ],
      [
        "▁ఉంది",
        -9.041267395019531
      ],
      [
        "▁উপস্থিত",
        -9.04188060760498
      ],
      [
        "ଳ",
        -9.042086601257324
      ],
      [
        "யாக",
        -9.042503356933594
      ],
      [
        "▁সু",
        -9.042961120605469
      ],
      [
        "▁ਬਹੁਤ",
        -9.043305397033691
      ],
      [
        "ప",
        -9.045580863952637
      ],
      [
        "வும்",
        -9.045912742614746
      ],
      [
        "▁करण्यात",
        -9.045912742614746
      ],
      [
        "िंग",
        -9.046453475952148
      ],
      [
        "ాడు",
        -9.047384262084961
      ],
      [
        "▁all",
        -9.048766136169434
      ],
      [
        "ঁ",
        -9.051308631896973
      ],
      [
        "▁பல",
        -9.05181884765625
      ],
      [
        "▁વધુ",
        -9.053762435913086
      ],
      [
        "▁କ",
        -9.053844451904297
      ],
      [
        "డ",
        -9.055404663085938
      ],
      [
        "▁बात",
        -9.056927680969238
      ],
      [
        "ത്തിന്റെ",
        -9.059427261352539
      ],
      [
        "▁লাভ",
        -9.0599365234375
      ],
      [
        "▁বহু",
        -9.060826301574707
      ],
      [
        "▁സ",
        -9.061141967773438
      ],
      [
        "▁त्या",
        -9.06153678894043
      ],
      [
        "ట",
        -9.062548637390137
      ],
      [
        "ତ",
        -9.064300537109375
      ],
      [
        "ಡಿ",
        -9.06514835357666
      ],
      [
        "ରା",
        -9.06655502319336
      ],
      [
        "ਦਾ",
        -9.066670417785645
      ],
      [
        "▁किसी",
        -9.067961692810059
      ],
      [
        "or",
        -9.068174362182617
      ],
      [
        "▁দি",
        -9.068416595458984
      ],
      [
        "–",
        -9.069925308227539
      ],
      [
        "▁ম",
        -9.0703125
      ],
      [
        "స",
        -9.0704927444458
      ],
      [
        "ುತ್ತದೆ",
        -9.070547103881836
      ],
      [
        "દ",
        -9.070624351501465
      ],
      [
        "ড",
        -9.074402809143066
      ],
      [
        "ಮ",
        -9.074703216552734
      ],
      [
        "th",
        -9.074712753295898
      ],
      [
        "ନା",
        -9.078224182128906
      ],
      [
        "ाचे",
        -9.078413963317871
      ],
      [
        "▁कारण",
        -9.07872200012207
      ],
      [
        "▁জন",
        -9.07917308807373
      ],
      [
        "ಸಿ",
        -9.080404281616211
      ],
      [
        "▁জিলা",
        -9.080422401428223
      ],
      [
        "ਗ",
        -9.081888198852539
      ],
      [
        "ଜ",
        -9.084062576293945
      ],
      [
        "▁but",
        -9.084434509277344
      ],
      [
        "्य",
        -9.085392951965332
      ],
      [
        "ಿದ್ದಾರೆ",
        -9.085836410522461
      ],
      [
        "▁মা",
        -9.086554527282715
      ],
      [
        "പ്പ",
        -9.087876319885254
      ],
      [
        "▁ତେବେ",
        -9.088033676147461
      ],
      [
        "▁ക്ക്",
        -9.089118003845215
      ],
      [
        "ਵ",
        -9.089334487915039
      ],
      [
        "ಲಿ",
        -9.089703559875488
      ],
      [
        "▁બે",
        -9.09017276763916
      ],
      [
        "▁ଏହା",
        -9.092180252075195
      ],
      [
        "▁છો",
        -9.092364311218262
      ],
      [
        "▁out",
        -9.092437744140625
      ],
      [
        "▁અથવા",
        -9.092511177062988
      ],
      [
        "▁up",
        -9.094328880310059
      ],
      [
        "ावर",
        -9.09461498260498
      ],
      [
        "▁बार",
        -9.094794273376465
      ],
      [
        "▁B",
        -9.095026016235352
      ],
      [
        "ரி",
        -9.095466613769531
      ],
      [
        "▁ଏ",
        -9.095500946044922
      ],
      [
        "ിന്",
        -9.096158027648926
      ],
      [
        "రు",
        -9.09681510925293
      ],
      [
        "ത്തെ",
        -9.098557472229004
      ],
      [
        "రా",
        -9.101967811584473
      ],
      [
        "বলৈ",
        -9.10299015045166
      ],
      [
        "নে",
        -9.10357666015625
      ],
      [
        "▁दो",
        -9.103917121887207
      ],
      [
        "▁ਹੋਣ",
        -9.10521411895752
      ],
      [
        "▁ਵਾਲੇ",
        -9.105283737182617
      ],
      [
        "ರೆ",
        -9.108646392822266
      ],
      [
        "▁ରେ",
        -9.108870506286621
      ],
      [
        "్",
        -9.110151290893555
      ],
      [
        "▁ଆଜି",
        -9.11034870147705
      ],
      [
        "▁ना",
        -9.110963821411133
      ],
      [
        "▁we",
        -9.11107349395752
      ],
      [
        "ନି",
        -9.111373901367188
      ],
      [
        "কৈ",
        -9.111577033996582
      ],
      [
        "▁ग",
        -9.116890907287598
      ],
      [
        "▁साल",
        -9.11752700805664
      ],
      [
        "▁P",
        -9.11836051940918
      ],
      [
        "ால்",
        -9.11888313293457
      ],
      [
        "▁ਪ੍ਰਧਾਨ",
        -9.120329856872559
      ],
      [
        "▁ਅ",
        -9.1204833984375
      ],
      [
        "மை",
        -9.120779037475586
      ],
      [
        "▁ಅವರ",
        -9.120943069458008
      ],
      [
        "▁re",
        -9.122865676879883
      ],
      [
        "जी",
        -9.123869895935059
      ],
      [
        "▁ହୋଇ",
        -9.123930931091309
      ],
      [
        "▁ப",
        -9.124350547790527
      ],
      [
        "ନ୍",
        -9.124357223510742
      ],
      [
        "▁they",
        -9.125118255615234
      ],
      [
        "ਨਾ",
        -9.125395774841309
      ],
      [
        "ానికి",
        -9.125894546508789
      ],
      [
        "▁સ",
        -9.126521110534668
      ],
      [
        "▁जब",
        -9.126836776733398
      ],
      [
        "▁দিয়া",
        -9.127904891967773
      ],
      [
        "an",
        -9.129536628723145
      ],
      [
        "▁இது",
        -9.132431030273438
      ],
      [
        "డం",
        -9.132720947265625
      ],
      [
        "▁ప",
        -9.133000373840332
      ],
      [
        "ਦੇ",
        -9.133966445922852
      ],
      [
        "▁কৰে৷",
        -9.134414672851562
      ],
      [
        "▁प्र",
        -9.135128021240234
      ],
      [
        "ತ",
        -9.135132789611816
      ],
      [
        "ாக",
        -9.135255813598633
      ],
      [
        "ers",
        -9.13713550567627
      ],
      [
        "m",
        -9.138209342956543
      ],
      [
        "ಳ",
        -9.138749122619629
      ],
      [
        "ಂ",
        -9.139334678649902
      ],
      [
        "▁वे",
        -9.139952659606934
      ],
      [
        "▁ন",
        -9.14208698272705
      ],
      [
        "களுக்கு",
        -9.14476203918457
      ],
      [
        "ത്തിന്",
        -9.14622688293457
      ],
      [
        "▁14",
        -9.146964073181152
      ],
      [
        "வே",
        -9.147464752197266
      ],
      [
        "▁చాలా",
        -9.147826194763184
      ],
      [
        "सी",
        -9.14909839630127
      ],
      [
        "্",
        -9.150580406188965
      ],
      [
        "▁வி",
        -9.150594711303711
      ],
      [
        "▁घर",
        -9.151594161987305
      ],
      [
        "▁ਹਰ",
        -9.152327537536621
      ],
      [
        "കള്",
        -9.15346908569336
      ],
      [
        "പ",
        -9.154399871826172
      ],
      [
        "▁ని",
        -9.156659126281738
      ],
      [
        "ਰੀ",
        -9.15739917755127
      ],
      [
        "ட",
        -9.157403945922852
      ],
      [
        "த்தின்",
        -9.15743350982666
      ],
      [
        "ട്ട",
        -9.158071517944336
      ],
      [
        "▁...",
        -9.15815544128418
      ],
      [
        "▁১",
        -9.15884780883789
      ],
      [
        "▁one",
        -9.159287452697754
      ],
      [
        "▁क",
        -9.15933609008789
      ],
      [
        "▁নেতা",
        -9.160033226013184
      ],
      [
        "▁over",
        -9.160558700561523
      ],
      [
        "▁ਕਾਰਨ",
        -9.160626411437988
      ],
      [
        "ப்பட்ட",
        -9.161127090454102
      ],
      [
        "b",
        -9.161725997924805
      ],
      [
        "ವಾದ",
        -9.162027359008789
      ],
      [
        "▁সম্পাদক",
        -9.162727355957031
      ],
      [
        "▁ਲੋਕਾਂ",
        -9.162776947021484
      ],
      [
        "వి",
        -9.163007736206055
      ],
      [
        "▁ಮಾಡ",
        -9.16306209564209
      ],
      [
        ")-",
        -9.163655281066895
      ],
      [
        "▁ଥିବା",
        -9.163729667663574
      ],
      [
        "▁তাদের",
        -9.164076805114746
      ],
      [
        "ভ",
        -9.164328575134277
      ],
      [
        "കൾ",
        -9.16441822052002
      ],
      [
        "▁after",
        -9.165241241455078
      ],
      [
        "ବି",
        -9.165623664855957
      ],
      [
        "▁तरह",
        -9.165911674499512
      ],
      [
        "▁પછી",
        -9.166428565979004
      ],
      [
        "ગ",
        -9.16840934753418
      ],
      [
        "▁सर्व",
        -9.168869018554688
      ],
      [
        "▁কাম",
        -9.16934871673584
      ],
      [
        "ଟ",
        -9.169398307800293
      ],
      [
        "ें",
        -9.17087459564209
      ],
      [
        ",”",
        -9.171173095703125
      ],
      [
        "ফ",
        -9.171985626220703
      ],
      [
        "ട",
        -9.172160148620605
      ],
      [
        "▁দুই",
        -9.173746109008789
      ],
      [
        "▁राज्य",
        -9.174666404724121
      ],
      [
        "▁ಕ",
        -9.174691200256348
      ],
      [
        "▁वि",
        -9.17597484588623
      ],
      [
        "▁दिल्ली",
        -9.176046371459961
      ],
      [
        "யா",
        -9.176209449768066
      ],
      [
        "ৱ",
        -9.176612854003906
      ],
      [
        "ସ୍",
        -9.176636695861816
      ],
      [
        "▁केला",
        -9.176765441894531
      ],
      [
        "▁ஆனால்",
        -9.177474021911621
      ],
      [
        "▁2019",
        -9.179835319519043
      ],
      [
        "▁25",
        -9.182186126708984
      ],
      [
        "િંગ",
        -9.182812690734863
      ],
      [
        "્સ",
        -9.184013366699219
      ],
      [
        "▁हुआ",
        -9.18445873260498
      ],
      [
        "લા",
        -9.184709548950195
      ],
      [
        "▁दिन",
        -9.185159683227539
      ],
      [
        "डी",
        -9.186063766479492
      ],
      [
        "▁16",
        -9.186201095581055
      ],
      [
        "▁କହିଛନ୍ତି",
        -9.187515258789062
      ],
      [
        "▁শ",
        -9.18780517578125
      ],
      [
        "▁ਵਿਖੇ",
        -9.188542366027832
      ],
      [
        "▁ਕੋਈ",
        -9.188612937927246
      ],
      [
        "▁தான்",
        -9.189648628234863
      ],
      [
        "তো",
        -9.19021987915039
      ],
      [
        "▁తన",
        -9.19091796875
      ],
      [
        "▁13",
        -9.191095352172852
      ],
      [
        "▁ਮੰਤਰੀ",
        -9.19180679321289
      ],
      [
        "ിയ",
        -9.192605018615723
      ],
      [
        "મા",
        -9.193077087402344
      ],
      [
        "▁समय",
        -9.193087577819824
      ],
      [
        "▁നല്",
        -9.193946838378906
      ],
      [
        "▁ହୋଇଛି",
        -9.194095611572266
      ],
      [
        "▁പ",
        -9.195599555969238
      ],
      [
        "ੂ",
        -9.197019577026367
      ],
      [
        "▁ਦੌਰਾਨ",
        -9.197124481201172
      ],
      [
        "ଛି",
        -9.197936058044434
      ],
      [
        "▁भारतीय",
        -9.198062896728516
      ],
      [
        "▁लेकर",
        -9.198290824890137
      ],
      [
        "▁সৃষ্টি",
        -9.199090003967285
      ],
      [
        "▁इन",
        -9.199446678161621
      ],
      [
        "S",
        -9.201287269592285
      ],
      [
        "सा",
        -9.201803207397461
      ],
      [
        "ଇ",
        -9.201871871948242
      ],
      [
        "னி",
        -9.201886177062988
      ],
      [
        "ాయి",
        -9.202066421508789
      ],
      [
        "▁న",
        -9.202608108520508
      ],
      [
        "வு",
        -9.202727317810059
      ],
      [
        "▁ഇ",
        -9.202924728393555
      ],
      [
        "ଣ",
        -9.203413963317871
      ],
      [
        "▁ஆ",
        -9.203685760498047
      ],
      [
        "▁बताया",
        -9.204482078552246
      ],
      [
        "ए",
        -9.205007553100586
      ],
      [
        "▁ನ",
        -9.20532512664795
      ],
      [
        "▁would",
        -9.207013130187988
      ],
      [
        "|",
        -9.207650184631348
      ],
      [
        "▁শেষ",
        -9.209327697753906
      ],
      [
        "▁প্রতি",
        -9.211369514465332
      ],
      [
        "▁more",
        -9.211420059204102
      ],
      [
        "ର୍",
        -9.211459159851074
      ],
      [
        "▁প্ৰ",
        -9.21169662475586
      ],
      [
        "▁দু",
        -9.212708473205566
      ],
      [
        "▁প",
        -9.213510513305664
      ],
      [
        "ુ",
        -9.213878631591797
      ],
      [
        "ೇ",
        -9.21452808380127
      ],
      [
        "▁ਤੱਕ",
        -9.214771270751953
      ],
      [
        "▁कई",
        -9.215181350708008
      ],
      [
        "फ",
        -9.217158317565918
      ],
      [
        "ള",
        -9.21718978881836
      ],
      [
        "ার",
        -9.218674659729004
      ],
      [
        "▁আছিল",
        -9.219244003295898
      ],
      [
        "లా",
        -9.2194185256958
      ],
      [
        "ுக்கு",
        -9.219483375549316
      ],
      [
        "▁ਰਹੀ",
        -9.221070289611816
      ],
      [
        "ख",
        -9.22170352935791
      ],
      [
        "ಗಳಿಗೆ",
        -9.222623825073242
      ],
      [
        "க்கும்",
        -9.224710464477539
      ],
      [
        "ച്ച",
        -9.226128578186035
      ],
      [
        "ద",
        -9.227989196777344
      ],
      [
        "▁कम",
        -9.228978157043457
      ],
      [
        "▁ਸਕਦਾ",
        -9.2293119430542
      ],
      [
        "ণ",
        -9.2295560836792
      ],
      [
        "▁ਲੈ",
        -9.229854583740234
      ],
      [
        "▁फिर",
        -9.230305671691895
      ],
      [
        "ਰਾ",
        -9.230514526367188
      ],
      [
        "▁ছিল",
        -9.230547904968262
      ],
      [
        "லை",
        -9.230753898620605
      ],
      [
        "▁!",
        -9.230975151062012
      ],
      [
        "टी",
        -9.231378555297852
      ],
      [
        "ांनी",
        -9.231560707092285
      ],
      [
        "▁ବା",
        -9.232108116149902
      ],
      [
        "▁ਦਿੱਤੀ",
        -9.23232650756836
      ],
      [
        "▁D",
        -9.232393264770508
      ],
      [
        "il",
        -9.23378849029541
      ],
      [
        "▁ତାଙ୍କ",
        -9.234052658081055
      ],
      [
        "▁हुई",
        -9.234095573425293
      ],
      [
        "▁G",
        -9.23415470123291
      ],
      [
        "શ",
        -9.2344970703125
      ],
      [
        "▁ডি",
        -9.234997749328613
      ],
      [
        "▁ಅಥವಾ",
        -9.235081672668457
      ],
      [
        "▁మ",
        -9.235475540161133
      ],
      [
        "▁अधिक",
        -9.235870361328125
      ],
      [
        "ણ",
        -9.236146926879883
      ],
      [
        "ಿದ",
        -9.236380577087402
      ],
      [
        "▁స",
        -9.236992835998535
      ],
      [
        "▁ରହିଛି",
        -9.2378511428833
      ],
      [
        "▁మీ",
        -9.238211631774902
      ],
      [
        "▁అని",
        -9.238319396972656
      ],
      [
        "ಡ್",
        -9.23851203918457
      ],
      [
        "ांना",
        -9.239903450012207
      ],
      [
        "தா",
        -9.240008354187012
      ],
      [
        "ಹ",
        -9.240819931030273
      ],
      [
        "્યા",
        -9.240923881530762
      ],
      [
        "▁2018",
        -9.241422653198242
      ],
      [
        "ந்து",
        -9.243268966674805
      ],
      [
        "▁ইয়াৰ",
        -9.243302345275879
      ],
      [
        "▁उनके",
        -9.243310928344727
      ],
      [
        "ु",
        -9.24393367767334
      ],
      [
        "▁আমার",
        -9.244925498962402
      ],
      [
        "ನ್ನು",
        -9.245001792907715
      ],
      [
        "▁ਕੌਰ",
        -9.245295524597168
      ],
      [
        "▁सु",
        -9.246468544006348
      ],
      [
        "▁ছাত্ৰ",
        -9.246723175048828
      ],
      [
        "ंग",
        -9.247051239013672
      ],
      [
        "▁ఏ",
        -9.247061729431152
      ],
      [
        "▁ସ",
        -9.247627258300781
      ],
      [
        "g",
        -9.247687339782715
      ],
      [
        "▁ਜ",
        -9.249347686767578
      ],
      [
        "▁हम",
        -9.250207901000977
      ],
      [
        "▁ச",
        -9.250265121459961
      ],
      [
        "▁त्यामुळे",
        -9.250967025756836
      ],
      [
        "ିତ",
        -9.251139640808105
      ],
      [
        "ഡ്",
        -9.2522611618042
      ],
      [
        "▁ఉన్న",
        -9.252683639526367
      ],
      [
        "▁সব",
        -9.253162384033203
      ],
      [
        "▁তাৰ",
        -9.253809928894043
      ],
      [
        "ുകൾ",
        -9.254430770874023
      ],
      [
        "▁प",
        -9.256120681762695
      ],
      [
        "▁17",
        -9.256819725036621
      ],
      [
        "वि",
        -9.257514953613281
      ],
      [
        "▁শুরু",
        -9.257680892944336
      ],
      [
        "▁ਕਰਕੇ",
        -9.259100914001465
      ],
      [
        "▁তবে",
        -9.259563446044922
      ],
      [
        "ଲି",
        -9.260215759277344
      ],
      [
        "▁रूप",
        -9.260251998901367
      ],
      [
        "f",
        -9.2609281539917
      ],
      [
        "▁ਪਿੰਡ",
        -9.261089324951172
      ],
      [
        "ଥିଲେ",
        -9.261664390563965
      ],
      [
        "▁can",
        -9.261860847473145
      ],
      [
        "▁F",
        -9.262112617492676
      ],
      [
        "▁about",
        -9.262181282043457
      ],
      [
        "▁?",
        -9.262410163879395
      ],
      [
        "ମା",
        -9.263862609863281
      ],
      [
        "ற",
        -9.265016555786133
      ],
      [
        "জি",
        -9.266714096069336
      ],
      [
        "▁તેના",
        -9.267659187316895
      ],
      [
        "উ",
        -9.268007278442383
      ],
      [
        "ଲେ",
        -9.268421173095703
      ],
      [
        "களும்",
        -9.26923656463623
      ],
      [
        "णे",
        -9.270315170288086
      ],
      [
        "शी",
        -9.270522117614746
      ],
      [
        "▁চৰকাৰে",
        -9.271231651306152
      ],
      [
        "▁மு",
        -9.271870613098145
      ],
      [
        "▁நான்",
        -9.272134780883789
      ],
      [
        "▁লোক",
        -9.272177696228027
      ],
      [
        "ുന്നു",
        -9.272377014160156
      ],
      [
        "ായ",
        -9.27297592163086
      ],
      [
        "വി",
        -9.273956298828125
      ],
      [
        "ది",
        -9.275147438049316
      ],
      [
        "▁কা",
        -9.275222778320312
      ],
      [
        "▁प्रदेश",
        -9.275634765625
      ],
      [
        "▁मात्र",
        -9.276320457458496
      ],
      [
        "▁થાય",
        -9.276350021362305
      ],
      [
        "▁తో",
        -9.27662181854248
      ],
      [
        "▁ਕੁਝ",
        -9.277907371520996
      ],
      [
        "ೋ",
        -9.279145240783691
      ],
      [
        "களின்",
        -9.279723167419434
      ],
      [
        "னர்",
        -9.28030776977539
      ],
      [
        "▁വ",
        -9.280643463134766
      ],
      [
        "ேன்",
        -9.281512260437012
      ],
      [
        "▁કોઈ",
        -9.28217601776123
      ],
      [
        "▁কাজ",
        -9.282369613647461
      ],
      [
        "▁ਤੌਰ",
        -9.2832670211792
      ],
      [
        "ವಿ",
        -9.28331470489502
      ],
      [
        "▁her",
        -9.283614158630371
      ],
      [
        "କ୍",
        -9.28369140625
      ],
      [
        "બ",
        -9.284024238586426
      ],
      [
        "ઝ",
        -9.284107208251953
      ],
      [
        "▁ના",
        -9.284308433532715
      ],
      [
        "▁আন",
        -9.28472900390625
      ],
      [
        "▁যদিও",
        -9.285280227661133
      ],
      [
        "▁ವಿ",
        -9.288299560546875
      ],
      [
        "▁বিৰুদ্ধে",
        -9.288323402404785
      ],
      [
        "▁तीन",
        -9.289554595947266
      ],
      [
        "বে",
        -9.290265083312988
      ],
      [
        "▁ਕੰਮ",
        -9.29132080078125
      ],
      [
        "▁પ",
        -9.291740417480469
      ],
      [
        "ప్",
        -9.29223346710205
      ],
      [
        "▁government",
        -9.292839050292969
      ],
      [
        "▁50",
        -9.293106079101562
      ],
      [
        "▁১৯",
        -9.293231010437012
      ],
      [
        "▁வந்த",
        -9.293279647827148
      ],
      [
        "▁ହେବ",
        -9.293519973754883
      ],
      [
        "মান",
        -9.29406452178955
      ],
      [
        "રી",
        -9.294367790222168
      ],
      [
        "▁ಮೇಲೆ",
        -9.294449806213379
      ],
      [
        "সহ",
        -9.294453620910645
      ],
      [
        "रे",
        -9.29475212097168
      ],
      [
        "ಡ",
        -9.295223236083984
      ],
      [
        "▁ଉପରେ",
        -9.295401573181152
      ],
      [
        "▁সি",
        -9.295449256896973
      ],
      [
        "నా",
        -9.295733451843262
      ],
      [
        "റ്റ",
        -9.295854568481445
      ],
      [
        "ದಿಂದ",
        -9.296960830688477
      ],
      [
        "▁কে",
        -9.298351287841797
      ],
      [
        "ভাৱে",
        -9.298981666564941
      ],
      [
        "के",
        -9.299111366271973
      ],
      [
        "▁ର",
        -9.299851417541504
      ],
      [
        "▁பா",
        -9.299944877624512
      ],
      [
        "▁ਸਾਲ",
        -9.300091743469238
      ],
      [
        "▁आता",
        -9.300436973571777
      ],
      [
        "ation",
        -9.300568580627441
      ],
      [
        "▁এন",
        -9.301050186157227
      ],
      [
        "ਸੀ",
        -9.301104545593262
      ],
      [
        "▁अनेक",
        -9.302430152893066
      ],
      [
        "▁मोदी",
        -9.302689552307129
      ],
      [
        "▁లేదా",
        -9.303874015808105
      ],
      [
        "▁মে",
        -9.303929328918457
      ],
      [
        "▁আই",
        -9.304386138916016
      ],
      [
        "▁కానీ",
        -9.304525375366211
      ],
      [
        "▁people",
        -9.304526329040527
      ],
      [
        "▁He",
        -9.30541706085205
      ],
      [
        "▁जाता",
        -9.305686950683594
      ],
      [
        "ੜ",
        -9.305753707885742
      ],
      [
        "▁द्वारा",
        -9.306055068969727
      ],
      [
        "l",
        -9.307806968688965
      ],
      [
        "▁గా",
        -9.307969093322754
      ],
      [
        "▁ਮੁੱਖ",
        -9.308215141296387
      ],
      [
        "డానికి",
        -9.30878734588623
      ],
      [
        "▁କିଛି",
        -9.310214042663574
      ],
      [
        "▁ਕਿਸੇ",
        -9.310958862304688
      ],
      [
        "▁K",
        -9.311501502990723
      ],
      [
        "▁ଯେ",
        -9.312217712402344
      ],
      [
        "ുന്നത്",
        -9.312899589538574
      ],
      [
        "டு",
        -9.313492774963379
      ],
      [
        "ri",
        -9.31373405456543
      ],
      [
        "▁বিজেপি",
        -9.314732551574707
      ],
      [
        "▁ક",
        -9.315225601196289
      ],
      [
        "ଲ୍",
        -9.316056251525879
      ],
      [
        "ଦ",
        -9.31627082824707
      ],
      [
        "▁వ",
        -9.316375732421875
      ],
      [
        "h",
        -9.316802978515625
      ],
      [
        "ഡ",
        -9.316909790039062
      ],
      [
        "ನಿ",
        -9.317115783691406
      ],
      [
        "ரு",
        -9.318208694458008
      ],
      [
        "▁ପ",
        -9.319235801696777
      ],
      [
        "▁आले",
        -9.31936264038086
      ],
      [
        "ാം",
        -9.319744110107422
      ],
      [
        "ನೆ",
        -9.320283889770508
      ],
      [
        "▁ਵਲੋਂ",
        -9.3208646774292
      ],
      [
        "▁ਜਾਣ",
        -9.321208953857422
      ],
      [
        "▁you",
        -9.321677207946777
      ],
      [
        "ಣ",
        -9.32187557220459
      ],
      [
        "am",
        -9.322213172912598
      ],
      [
        "▁சி",
        -9.32270336151123
      ],
      [
        "▁ধৰি",
        -9.323358535766602
      ],
      [
        "టి",
        -9.324254035949707
      ],
      [
        "▁প্রথম",
        -9.325201034545898
      ],
      [
        "▁যোৱা",
        -9.325654983520508
      ],
      [
        "▁ଦିନ",
        -9.326231002807617
      ],
      [
        "▁এনে",
        -9.326748847961426
      ],
      [
        "A",
        -9.329704284667969
      ],
      [
        "▁नाम",
        -9.330831527709961
      ],
      [
        "ar",
        -9.331958770751953
      ],
      [
        "യ്",
        -9.33208179473877
      ],
      [
        "▁কৰিছিল",
        -9.332881927490234
      ],
      [
        "ય",
        -9.333100318908691
      ],
      [
        "▁থাকে",
        -9.33314037322998
      ],
      [
        "▁செய்ய",
        -9.33330249786377
      ],
      [
        "▁அது",
        -9.333688735961914
      ],
      [
        "▁মই",
        -9.333954811096191
      ],
      [
        "য়া",
        -9.334403991699219
      ],
      [
        "▁ଭାବେ",
        -9.334574699401855
      ],
      [
        "र्",
        -9.334699630737305
      ],
      [
        "▁সদস্য",
        -9.33565902709961
      ],
      [
        "ମାନେ",
        -9.336252212524414
      ],
      [
        "ില്ല",
        -9.336543083190918
      ],
      [
        "▁এতিয়া",
        -9.337540626525879
      ],
      [
        "জা",
        -9.3377046585083
      ],
      [
        "दा",
        -9.337800025939941
      ],
      [
        "லி",
        -9.33796215057373
      ],
      [
        "▁২",
        -9.338455200195312
      ],
      [
        "ਾਈ",
        -9.338621139526367
      ],
      [
        "▁বিশেষ",
        -9.339776039123535
      ],
      [
        "▁ਅੱਜ",
        -9.340795516967773
      ],
      [
        "▁Home",
        -9.342609405517578
      ],
      [
        "वे",
        -9.343144416809082
      ],
      [
        "েৰে",
        -9.343297004699707
      ],
      [
        "িং",
        -9.344549179077148
      ],
      [
        "▁തന്നെ",
        -9.34558391571045
      ],
      [
        "▁सभी",
        -9.346561431884766
      ],
      [
        "▁ਲੋਕ",
        -9.350255012512207
      ],
      [
        "మ్",
        -9.351062774658203
      ],
      [
        "▁जाने",
        -9.351622581481934
      ],
      [
        "તી",
        -9.351624488830566
      ],
      [
        "▁ନାହିଁ",
        -9.352278709411621
      ],
      [
        "B",
        -9.352313995361328
      ],
      [
        "మైన",
        -9.35278606414795
      ],
      [
        "▁તેઓ",
        -9.353114128112793
      ],
      [
        "▁म्हणून",
        -9.353135108947754
      ],
      [
        "கா",
        -9.35363483428955
      ],
      [
        "▁मी",
        -9.353679656982422
      ],
      [
        "ୁ",
        -9.353937149047852
      ],
      [
        "ിലെ",
        -9.35398006439209
      ],
      [
        "▁উপ",
        -9.354269027709961
      ],
      [
        "▁ਸਕੂਲ",
        -9.354825019836426
      ],
      [
        "ಾಗ",
        -9.354840278625488
      ],
      [
        "રા",
        -9.35630989074707
      ],
      [
        "ହ",
        -9.356460571289062
      ],
      [
        "▁నుంచి",
        -9.356595993041992
      ],
      [
        "2",
        -9.357064247131348
      ],
      [
        "ரை",
        -9.357318878173828
      ],
      [
        "k",
        -9.35857105255127
      ],
      [
        "▁তাঁর",
        -9.358736038208008
      ],
      [
        "ரா",
        -9.359163284301758
      ],
      [
        "▁যদি",
        -9.35928726196289
      ],
      [
        "▁त",
        -9.359725952148438
      ],
      [
        "▁অহা",
        -9.359823226928711
      ],
      [
        "▁T",
        -9.359907150268555
      ],
      [
        "▁ওই",
        -9.360020637512207
      ],
      [
        "ରି",
        -9.360167503356934
      ],
      [
        "▁સુધી",
        -9.36020565032959
      ],
      [
        "ங்க",
        -9.360754013061523
      ],
      [
        "▁M",
        -9.361166000366211
      ],
      [
        "▁उन्हें",
        -9.36131763458252
      ],
      [
        "ৰি",
        -9.363123893737793
      ],
      [
        "▁मे",
        -9.36314582824707
      ],
      [
        "▁ಬಗ್ಗೆ",
        -9.363554000854492
      ],
      [
        "▁முதல்",
        -9.363590240478516
      ],
      [
        "ాల",
        -9.363615989685059
      ],
      [
        "பி",
        -9.36458683013916
      ],
      [
        "▁করার",
        -9.36460018157959
      ],
      [
        "ಲ್ಲಿ",
        -9.364656448364258
      ],
      [
        "▁ന",
        -9.364819526672363
      ],
      [
        "ಿದ್ದ",
        -9.365294456481934
      ],
      [
        "▁பி",
        -9.365440368652344
      ],
      [
        "▁ਬਾਰੇ",
        -9.36560344696045
      ],
      [
        "▁হোৱাৰ",
        -9.366172790527344
      ],
      [
        "▁ਜਾਂ",
        -9.366190910339355
      ],
      [
        "డి",
        -9.366275787353516
      ],
      [
        "▁ए",
        -9.366559028625488
      ],
      [
        "▁ले",
        -9.367084503173828
      ],
      [
        "▁मुंबई",
        -9.367375373840332
      ],
      [
        "দা",
        -9.367789268493652
      ],
      [
        "T",
        -9.368468284606934
      ],
      [
        "▁মন্তব্য",
        -9.368596076965332
      ],
      [
        "ದು",
        -9.368767738342285
      ],
      [
        "▁তথ্য",
        -9.369047164916992
      ],
      [
        "▁टीम",
        -9.369728088378906
      ],
      [
        "▁তারা",
        -9.370793342590332
      ],
      [
        "ಿರುವ",
        -9.371133804321289
      ],
      [
        "സി",
        -9.371183395385742
      ],
      [
        "it",
        -9.37134838104248
      ],
      [
        "▁ଜଣେ",
        -9.372035026550293
      ],
      [
        "▁ਸਾਹਿਬ",
        -9.37208366394043
      ],
      [
        "▁नि",
        -9.373099327087402
      ],
      [
        "▁எ",
        -9.373453140258789
      ],
      [
        "▁It",
        -9.373712539672852
      ],
      [
        "ୟ",
        -9.375353813171387
      ],
      [
        "ાઈ",
        -9.3756685256958
      ],
      [
        "w",
        -9.375787734985352
      ],
      [
        "▁दे",
        -9.376761436462402
      ],
      [
        "▁হচ্ছে",
        -9.377853393554688
      ],
      [
        "ৰ্",
        -9.379960060119629
      ],
      [
        "পা",
        -9.379971504211426
      ],
      [
        "পি",
        -9.380156517028809
      ],
      [
        "▁two",
        -9.381630897521973
      ],
      [
        "ছিল",
        -9.382378578186035
      ],
      [
        "on",
        -9.38306713104248
      ],
      [
        "▁চ",
        -9.383255958557129
      ],
      [
        "ദ",
        -9.384807586669922
      ],
      [
        "િત",
        -9.385191917419434
      ],
      [
        "সা",
        -9.385329246520996
      ],
      [
        "▁वर्ष",
        -9.386017799377441
      ],
      [
        "▁करना",
        -9.386259078979492
      ],
      [
        "ുള്ള",
        -9.386981964111328
      ],
      [
        "▁সময়ত",
        -9.388017654418945
      ],
      [
        "▁મ",
        -9.388467788696289
      ],
      [
        "ਲੀ",
        -9.38929271697998
      ],
      [
        "▁ను",
        -9.389382362365723
      ],
      [
        "ਿਆਂ",
        -9.390256881713867
      ],
      [
        "ಬೇಕು",
        -9.390456199645996
      ],
      [
        "थ",
        -9.390560150146484
      ],
      [
        "ണം",
        -9.391241073608398
      ],
      [
        "▁ਜੀ",
        -9.391407012939453
      ],
      [
        "চি",
        -9.392179489135742
      ],
      [
        "ਦੀ",
        -9.392777442932129
      ],
      [
        "▁সৈতে",
        -9.394481658935547
      ],
      [
        "▁ਸਭ",
        -9.394804954528809
      ],
      [
        "▁यांच्या",
        -9.397936820983887
      ],
      [
        "▁થઈ",
        -9.398271560668945
      ],
      [
        "▁24",
        -9.39840316772461
      ],
      [
        "▁हर",
        -9.398602485656738
      ],
      [
        "▁તમારા",
        -9.398825645446777
      ],
      [
        "▁ம",
        -9.398906707763672
      ],
      [
        "సి",
        -9.398956298828125
      ],
      [
        "▁ਕੀਤੇ",
        -9.399477005004883
      ],
      [
        "▁പറഞ്ഞു",
        -9.399495124816895
      ],
      [
        "আ",
        -9.399819374084473
      ],
      [
        "▁শিক্ষা",
        -9.401129722595215
      ],
      [
        "▁বে",
        -9.402156829833984
      ],
      [
        "स्",
        -9.40311336517334
      ],
      [
        "तील",
        -9.403145790100098
      ],
      [
        "▁ମା",
        -9.403483390808105
      ],
      [
        "▁বন্ধ",
        -9.403573036193848
      ],
      [
        "ഗ",
        -9.404886245727539
      ],
      [
        "▁পুলিশ",
        -9.405216217041016
      ],
      [
        "▁ਕਰਦੇ",
        -9.405279159545898
      ],
      [
        "▁ನಿಮ್ಮ",
        -9.405594825744629
      ],
      [
        "లి",
        -9.405927658081055
      ],
      [
        "▁ମ",
        -9.406462669372559
      ],
      [
        "▁ਦੋ",
        -9.407674789428711
      ],
      [
        "▁হিচাপে",
        -9.409538269042969
      ],
      [
        "ସି",
        -9.409796714782715
      ],
      [
        "▁ଏବେ",
        -9.4100341796875
      ],
      [
        "தை",
        -9.410035133361816
      ],
      [
        "▁होगा",
        -9.413445472717285
      ],
      [
        "ंड",
        -9.413573265075684
      ],
      [
        "ான",
        -9.413689613342285
      ],
      [
        "ভাবে",
        -9.413820266723633
      ],
      [
        "▁ਸਾਰੇ",
        -9.414454460144043
      ],
      [
        "▁আমাদের",
        -9.414680480957031
      ],
      [
        "▁రా",
        -9.415105819702148
      ],
      [
        "ಿಗೆ",
        -9.41547966003418
      ],
      [
        "▁সা",
        -9.415959358215332
      ],
      [
        "साठी",
        -9.417695045471191
      ],
      [
        "▁ঘোষণা",
        -9.418290138244629
      ],
      [
        "▁जी",
        -9.418838500976562
      ],
      [
        "▁இருந்து",
        -9.418889045715332
      ],
      [
        "▁ਬ",
        -9.420499801635742
      ],
      [
        "▁लाख",
        -9.420681953430176
      ],
      [
        "▁সকলো",
        -9.421024322509766
      ],
      [
        "ിച്ച",
        -9.422379493713379
      ],
      [
        "▁ह",
        -9.422426223754883
      ],
      [
        "யே",
        -9.422616958618164
      ],
      [
        "యా",
        -9.422684669494629
      ],
      [
        "ur",
        -9.422721862792969
      ],
      [
        "▁త",
        -9.42286491394043
      ],
      [
        "▁তো",
        -9.422891616821289
      ],
      [
        "ൂ",
        -9.42304515838623
      ],
      [
        "ലി",
        -9.423348426818848
      ],
      [
        "▁அரசு",
        -9.424447059631348
      ],
      [
        "ांच्या",
        -9.424825668334961
      ],
      [
        "▁लोग",
        -9.424836158752441
      ],
      [
        "റി",
        -9.424866676330566
      ],
      [
        "▁പ്ര",
        -9.425273895263672
      ],
      [
        "▁তাই",
        -9.425749778747559
      ],
      [
        "▁IST",
        -9.425803184509277
      ],
      [
        "▁সংবাদ",
        -9.42589282989502
      ],
      [
        "▁ನಂತರ",
        -9.42662525177002
      ],
      [
        "▁21",
        -9.426704406738281
      ],
      [
        "ion",
        -9.426817893981934
      ],
      [
        "ડી",
        -9.42686653137207
      ],
      [
        "▁हजार",
        -9.427048683166504
      ],
      [
        "▁सकता",
        -9.427129745483398
      ],
      [
        "▁சில",
        -9.42719554901123
      ],
      [
        "▁கொண்ட",
        -9.427748680114746
      ],
      [
        "ட்ட",
        -9.428006172180176
      ],
      [
        "ातील",
        -9.428683280944824
      ],
      [
        "▁செய்து",
        -9.428946495056152
      ],
      [
        "▁सा",
        -9.429238319396973
      ],
      [
        "वी",
        -9.429377555847168
      ],
      [
        "I",
        -9.429417610168457
      ],
      [
        "ಪ",
        -9.4296875
      ],
      [
        "ਨੀ",
        -9.43038272857666
      ],
      [
        "▁உ",
        -9.431482315063477
      ],
      [
        "▁आपण",
        -9.432884216308594
      ],
      [
        "ल्या",
        -9.432995796203613
      ],
      [
        "▁ਸ੍ਰੀ",
        -9.433147430419922
      ],
      [
        "▁ବ",
        -9.433797836303711
      ],
      [
        "ଛନ୍ତି",
        -9.434847831726074
      ],
      [
        "లకు",
        -9.435272216796875
      ],
      [
        "▁സര്",
        -9.435860633850098
      ],
      [
        "▁অনেক",
        -9.436246871948242
      ],
      [
        "▁बस",
        -9.436285972595215
      ],
      [
        "▁ला",
        -9.436676979064941
      ],
      [
        "▁ఎ",
        -9.43675422668457
      ],
      [
        "▁ରାଜ୍ୟ",
        -9.43700122833252
      ],
      [
        "▁ਵਾਰ",
        -9.437443733215332
      ],
      [
        "▁கொண்டு",
        -9.437529563903809
      ],
      [
        "ండి",
        -9.43770694732666
      ],
      [
        "▁నుండి",
        -9.437847137451172
      ],
      [
        "ड़",
        -9.43826961517334
      ],
      [
        "ীয়া",
        -9.438714981079102
      ],
      [
        "ଟ୍",
        -9.43993091583252
      ],
      [
        "ായി",
        -9.4401273727417
      ],
      [
        "▁असून",
        -9.44105052947998
      ],
      [
        "▁ସୂଚନା",
        -9.441219329833984
      ],
      [
        "લી",
        -9.442937850952148
      ],
      [
        "▁৫",
        -9.44374942779541
      ],
      [
        "▁લોકો",
        -9.443760871887207
      ],
      [
        "▁Rs",
        -9.444123268127441
      ],
      [
        "▁बहुत",
        -9.444334030151367
      ],
      [
        "▁કરો",
        -9.444390296936035
      ],
      [
        "्या",
        -9.444497108459473
      ],
      [
        "ਫ",
        -9.44559097290039
      ],
      [
        "▁କରାଯାଇଛି",
        -9.446060180664062
      ],
      [
        "▁নয়",
        -9.446218490600586
      ],
      [
        "▁ఓ",
        -9.446619987487793
      ],
      [
        "கு",
        -9.446798324584961
      ],
      [
        "▁ଟଙ୍କା",
        -9.447151184082031
      ],
      [
        "వా",
        -9.447469711303711
      ],
      [
        "▁જ્યારે",
        -9.447790145874023
      ],
      [
        "னை",
        -9.448087692260742
      ],
      [
        "▁વિ",
        -9.448111534118652
      ],
      [
        "▁জিলাৰ",
        -9.448233604431152
      ],
      [
        "▁रुपये",
        -9.448732376098633
      ],
      [
        "ਲੇ",
        -9.448845863342285
      ],
      [
        "▁कांग्रेस",
        -9.450417518615723
      ],
      [
        "▁১০",
        -9.450800895690918
      ],
      [
        "p",
        -9.450955390930176
      ],
      [
        "▁other",
        -9.450989723205566
      ],
      [
        "▁ਸਮੇਂ",
        -9.451929092407227
      ],
      [
        "1",
        -9.452407836914062
      ],
      [
        "▁বিশ্ব",
        -9.452463150024414
      ],
      [
        "▁ਪੀ",
        -9.453500747680664
      ],
      [
        "▁আমরা",
        -9.453946113586426
      ],
      [
        "▁आपल्या",
        -9.454957962036133
      ],
      [
        "ಮ್",
        -9.45795726776123
      ],
      [
        "▁ਪ",
        -9.457985877990723
      ],
      [
        "▁অসমীয়া",
        -9.458210945129395
      ],
      [
        "▁നിന്ന്",
        -9.458740234375
      ],
      [
        "ೀ",
        -9.459023475646973
      ],
      [
        "▁ସରକାର",
        -9.459606170654297
      ],
      [
        "▁per",
        -9.460233688354492
      ],
      [
        "▁রয়েছে",
        -9.460582733154297
      ],
      [
        "▁আগে",
        -9.461662292480469
      ],
      [
        "তি",
        -9.461692810058594
      ],
      [
        "▁100",
        -9.463037490844727
      ],
      [
        "▁টাকা",
        -9.463225364685059
      ],
      [
        "अ",
        -9.463433265686035
      ],
      [
        "▁নিজৰ",
        -9.464349746704102
      ],
      [
        "▁ঘটনা",
        -9.464400291442871
      ],
      [
        "▁আজ",
        -9.464428901672363
      ],
      [
        "▁কোটি",
        -9.46485710144043
      ],
      [
        "ள",
        -9.465025901794434
      ],
      [
        "ओं",
        -9.4658784866333
      ],
      [
        "ూ",
        -9.466131210327148
      ],
      [
        "▁ମଧ୍ୟରେ",
        -9.467166900634766
      ],
      [
        "നി",
        -9.46774959564209
      ],
      [
        "▁मध्ये",
        -9.467938423156738
      ],
      [
        "▁জাতীয়",
        -9.468087196350098
      ],
      [
        "ുകള്",
        -9.468099594116211
      ],
      [
        "▁ಸ",
        -9.468155860900879
      ],
      [
        "▁৩",
        -9.468502044677734
      ],
      [
        "▁సినిమా",
        -9.46875
      ],
      [
        "▁লাখ",
        -9.469767570495605
      ],
      [
        "▁इ",
        -9.470179557800293
      ],
      [
        "ಪ್",
        -9.470346450805664
      ],
      [
        "▁দাবী",
        -9.470576286315918
      ],
      [
        "▁ଆରମ୍ଭ",
        -9.470803260803223
      ],
      [
        "▁ਪੁਲਿਸ",
        -9.471037864685059
      ],
      [
        "▁ਪਹਿਲਾਂ",
        -9.471284866333008
      ],
      [
        "▁विचार",
        -9.471508026123047
      ],
      [
        "▁করেছে",
        -9.471588134765625
      ],
      [
        "న్న",
        -9.471758842468262
      ],
      [
        "▁महिला",
        -9.472175598144531
      ],
      [
        "▁মনে",
        -9.473165512084961
      ],
      [
        "▁ਪ੍ਰ",
        -9.473978042602539
      ],
      [
        "le",
        -9.474085807800293
      ],
      [
        "ഹ",
        -9.474233627319336
      ],
      [
        "কো",
        -9.474531173706055
      ],
      [
        "▁ಮ",
        -9.475166320800781
      ],
      [
        "▁আৰম্ভ",
        -9.475451469421387
      ],
      [
        "খ",
        -9.47546672821045
      ],
      [
        "യിലെ",
        -9.475709915161133
      ],
      [
        "▁হৈছিল",
        -9.475966453552246
      ],
      [
        "▁માં",
        -9.476853370666504
      ],
      [
        "▁মু",
        -9.477243423461914
      ],
      [
        "▁কোন",
        -9.477456092834473
      ],
      [
        "▁लिया",
        -9.47787857055664
      ],
      [
        "ടി",
        -9.478097915649414
      ],
      [
        "ta",
        -9.478339195251465
      ],
      [
        "மும்",
        -9.478768348693848
      ],
      [
        "▁കെ",
        -9.479174613952637
      ],
      [
        "కా",
        -9.479532241821289
      ],
      [
        "লো",
        -9.479841232299805
      ],
      [
        "ଶ",
        -9.480571746826172
      ],
      [
        "▁যা",
        -9.480578422546387
      ],
      [
        "▁करून",
        -9.48067569732666
      ],
      [
        "▁দেশ",
        -9.481191635131836
      ],
      [
        "▁ந",
        -9.481435775756836
      ],
      [
        "▁ਦਿਨ",
        -9.481575012207031
      ],
      [
        "ப்பட",
        -9.482393264770508
      ],
      [
        "কি",
        -9.482601165771484
      ],
      [
        "ುವುದು",
        -9.483253479003906
      ],
      [
        "▁என்ன",
        -9.483875274658203
      ],
      [
        "▁सं",
        -9.484004974365234
      ],
      [
        "ల్లో",
        -9.484951972961426
      ],
      [
        "▁क्षेत्र",
        -9.485248565673828
      ],
      [
        "▁सकते",
        -9.485832214355469
      ],
      [
        "▁প্রায়",
        -9.48719310760498
      ],
      [
        "▁சா",
        -9.487293243408203
      ],
      [
        "▁இருந்த",
        -9.487401962280273
      ],
      [
        "▁বৰ",
        -9.487512588500977
      ],
      [
        "କା",
        -9.488329887390137
      ],
      [
        "ശ",
        -9.48911190032959
      ],
      [
        "▁”",
        -9.490196228027344
      ],
      [
        "▁അത്",
        -9.490678787231445
      ],
      [
        "ਆ",
        -9.491477012634277
      ],
      [
        "▁স্থানীয়",
        -9.491694450378418
      ],
      [
        "▁उ",
        -9.491705894470215
      ],
      [
        "▁শিক্ষক",
        -9.491851806640625
      ],
      [
        "▁ਜੇ",
        -9.491972923278809
      ],
      [
        "▁आली",
        -9.492207527160645
      ],
      [
        "▁आई",
        -9.492318153381348
      ],
      [
        "এ",
        -9.49295425415039
      ],
      [
        "▁த",
        -9.493066787719727
      ],
      [
        "▁ത",
        -9.49351692199707
      ],
      [
        "▁আমাৰ",
        -9.49356746673584
      ],
      [
        "ांची",
        -9.49448013305664
      ],
      [
        "வா",
        -9.494797706604004
      ],
      [
        "ਅ",
        -9.495043754577637
      ],
      [
        "డు",
        -9.4955472946167
      ],
      [
        "D",
        -9.496620178222656
      ],
      [
        "▁তেওঁৰ",
        -9.49671745300293
      ],
      [
        "▁মি",
        -9.497718811035156
      ],
      [
        "▁এজন",
        -9.498027801513672
      ],
      [
        "▁ପକ୍ଷରୁ",
        -9.498259544372559
      ],
      [
        "▁மேலும்",
        -9.498863220214844
      ],
      [
        "▁फिल्म",
        -9.498945236206055
      ],
      [
        "▁ಹ",
        -9.499632835388184
      ],
      [
        "▁প্রকাশ",
        -9.499879837036133
      ],
      [
        "হা",
        -9.500722885131836
      ],
      [
        "▁time",
        -9.500917434692383
      ],
      [
        "வில்லை",
        -9.50111198425293
      ],
      [
        "▁বাংলাদেশ",
        -9.501506805419922
      ],
      [
        "▁নেই",
        -9.501956939697266
      ],
      [
        "▁કામ",
        -9.502376556396484
      ],
      [
        "▁নহয়",
        -9.502593994140625
      ],
      [
        "িয়া",
        -9.503307342529297
      ],
      [
        "ங்களை",
        -9.503374099731445
      ],
      [
        "▁ਮ",
        -9.503483772277832
      ],
      [
        "▁there",
        -9.505006790161133
      ],
      [
        "அ",
        -9.50594425201416
      ],
      [
        "▁কাছে",
        -9.507183074951172
      ],
      [
        "बी",
        -9.507986068725586
      ],
      [
        "▁no",
        -9.508373260498047
      ],
      [
        "સી",
        -9.5086669921875
      ],
      [
        "▁ਵੱਖ",
        -9.50898265838623
      ],
      [
        "▁ਕਈ",
        -9.509033203125
      ],
      [
        "త్",
        -9.509750366210938
      ],
      [
        "தாக",
        -9.51084041595459
      ],
      [
        "▁পারে",
        -9.51108455657959
      ],
      [
        "▁जे",
        -9.511345863342285
      ],
      [
        "▁ভাল",
        -9.51144027709961
      ],
      [
        "▁একটা",
        -9.511518478393555
      ],
      [
        "▁ਰਾਜ",
        -9.51167106628418
      ],
      [
        "ପୁର",
        -9.512153625488281
      ],
      [
        "▁উত্তৰ",
        -9.51215648651123
      ],
      [
        "▁నా",
        -9.512251853942871
      ],
      [
        "▁ਜਦੋਂ",
        -9.513118743896484
      ],
      [
        "మా",
        -9.514796257019043
      ],
      [
        "ਵਾਂ",
        -9.515408515930176
      ],
      [
        "▁ছাত্র",
        -9.515641212463379
      ],
      [
        "▁so",
        -9.516022682189941
      ],
      [
        "▁when",
        -9.516189575195312
      ],
      [
        "▁ਤੁਹਾਨੂੰ",
        -9.516508102416992
      ],
      [
        "કો",
        -9.516754150390625
      ],
      [
        "▁de",
        -9.516912460327148
      ],
      [
        "▁মো",
        -9.517094612121582
      ],
      [
        "റ്റ്",
        -9.517221450805664
      ],
      [
        "▁त्यांच्या",
        -9.517240524291992
      ],
      [
        "▁द",
        -9.517400741577148
      ],
      [
        "▁ସି",
        -9.518461227416992
      ],
      [
        "▁କରିବାକୁ",
        -9.51934814453125
      ],
      [
        "▁एवं",
        -9.51980209350586
      ],
      [
        "▁ਨ",
        -9.520806312561035
      ],
      [
        "u",
        -9.52083969116211
      ],
      [
        "▁कंपनी",
        -9.520873069763184
      ],
      [
        "C",
        -9.520886421203613
      ],
      [
        "▁നിര്",
        -9.521315574645996
      ],
      [
        "▁ತಮ್ಮ",
        -9.522229194641113
      ],
      [
        "▁అయితే",
        -9.522348403930664
      ],
      [
        "லா",
        -9.523880004882812
      ],
      [
        "ಬಹುದು",
        -9.523909568786621
      ],
      [
        "லாம்",
        -9.524555206298828
      ],
      [
        "সকলে",
        -9.52503490447998
      ],
      [
        "▁विभाग",
        -9.525419235229492
      ],
      [
        "ଏ",
        -9.526178359985352
      ],
      [
        "ਤੀ",
        -9.52647590637207
      ],
      [
        "হি",
        -9.526577949523926
      ],
      [
        "ળ",
        -9.526639938354492
      ],
      [
        "வின்",
        -9.526986122131348
      ],
      [
        "id",
        -9.5277681350708
      ],
      [
        "▁झाले",
        -9.52780818939209
      ],
      [
        "▁ਸ਼ੁਰੂ",
        -9.528260231018066
      ],
      [
        "யான",
        -9.528761863708496
      ],
      [
        "▁মন্ত্ৰী",
        -9.529402732849121
      ],
      [
        "ము",
        -9.529443740844727
      ],
      [
        "▁ਕ",
        -9.529890060424805
      ],
      [
        ",\"",
        -9.530132293701172
      ],
      [
        "▁2017",
        -9.530241012573242
      ],
      [
        "en",
        -9.53033447265625
      ],
      [
        "▁ਹੋਈ",
        -9.530357360839844
      ],
      [
        "ന്റെ",
        -9.53060245513916
      ],
      [
        "ଗ",
        -9.5311279296875
      ],
      [
        "▁against",
        -9.53116226196289
      ],
      [
        "னா",
        -9.531423568725586
      ],
      [
        "▁தமிழ்",
        -9.53172492980957
      ],
      [
        "▁year",
        -9.532872200012207
      ],
      [
        "▁त्यांनी",
        -9.533143043518066
      ],
      [
        "से",
        -9.533148765563965
      ],
      [
        "▁ବର୍ଷ",
        -9.533415794372559
      ],
      [
        "▁दौरान",
        -9.534183502197266
      ],
      [
        "▁under",
        -9.534549713134766
      ],
      [
        "▁என்பது",
        -9.534668922424316
      ],
      [
        "▁पास",
        -9.535050392150879
      ],
      [
        "▁টকা",
        -9.535186767578125
      ],
      [
        "▁என்",
        -9.535240173339844
      ],
      [
        "▁તેમના",
        -9.53670883178711
      ],
      [
        "▁मैं",
        -9.536809921264648
      ],
      [
        "▁ఇ",
        -9.536931037902832
      ],
      [
        "▁கா",
        -9.536933898925781
      ],
      [
        "অ",
        -9.537318229675293
      ],
      [
        "▁কু",
        -9.537474632263184
      ],
      [
        "▁জি",
        -9.537670135498047
      ],
      [
        "▁କି",
        -9.537816047668457
      ],
      [
        "णी",
        -9.538622856140137
      ],
      [
        "▁வர",
        -9.538651466369629
      ],
      [
        "पी",
        -9.539202690124512
      ],
      [
        "▁विकास",
        -9.539213180541992
      ],
      [
        "மே",
        -9.54047966003418
      ],
      [
        "9",
        -9.540557861328125
      ],
      [
        "िया",
        -9.541614532470703
      ],
      [
        "▁আৰ",
        -9.541873931884766
      ],
      [
        "कार",
        -9.54298210144043
      ],
      [
        "▁क्या",
        -9.543471336364746
      ],
      [
        "હ",
        -9.5435152053833
      ],
      [
        "▁କିନ୍ତୁ",
        -9.543760299682617
      ],
      [
        "সকলৰ",
        -9.544485092163086
      ],
      [
        "▁दोन",
        -9.544641494750977
      ],
      [
        "▁N",
        -9.544761657714844
      ],
      [
        "▁सबसे",
        -9.544936180114746
      ],
      [
        "0",
        -9.545063018798828
      ],
      [
        "M",
        -9.546065330505371
      ],
      [
        "ವಾಗಿದೆ",
        -9.546276092529297
      ],
      [
        "ತೆ",
        -9.546549797058105
      ],
      [
        "▁તરીકે",
        -9.546954154968262
      ],
      [
        "▁இருக்கும்",
        -9.548187255859375
      ],
      [
        "▁अध्यक्ष",
        -9.54849624633789
      ],
      [
        "િ",
        -9.549897193908691
      ],
      [
        "c",
        -9.550167083740234
      ],
      [
        "ଡି",
        -9.550655364990234
      ],
      [
        "ாமல்",
        -9.550748825073242
      ],
      [
        "▁கடந்த",
        -9.55121898651123
      ],
      [
        "st",
        -9.551262855529785
      ],
      [
        "▁ଜିଲ୍ଲା",
        -9.551302909851074
      ],
      [
        "▁করেছেন",
        -9.551568031311035
      ],
      [
        "▁চৰকাৰৰ",
        -9.552294731140137
      ],
      [
        "▁ఆయన",
        -9.552756309509277
      ],
      [
        "▁மா",
        -9.553013801574707
      ],
      [
        "▁ପ୍ର",
        -9.553166389465332
      ],
      [
        "ডি",
        -9.553515434265137
      ],
      [
        "at",
        -9.55402946472168
      ],
      [
        "જી",
        -9.554459571838379
      ],
      [
        "▁एका",
        -9.554903030395508
      ],
      [
        "▁पार्टी",
        -9.555020332336426
      ],
      [
        "▁இன்று",
        -9.555520057678223
      ],
      [
        "▁ৰ",
        -9.555611610412598
      ],
      [
        "▁‘‘",
        -9.555970191955566
      ],
      [
        "▁కా",
        -9.556201934814453
      ],
      [
        "▁আৰক্ষী",
        -9.556340217590332
      ],
      [
        "शा",
        -9.55652904510498
      ],
      [
        "ମ୍",
        -9.556994438171387
      ],
      [
        "▁सी",
        -9.557374954223633
      ],
      [
        "ட்டி",
        -9.55872631072998
      ],
      [
        "▁किंवा",
        -9.559741973876953
      ],
      [
        "ത്ത്",
        -9.559920310974121
      ],
      [
        "▁ਡਾ",
        -9.560043334960938
      ],
      [
        "▁झाली",
        -9.56023120880127
      ],
      [
        "▁*",
        -9.560873031616211
      ],
      [
        "ுள்ளது",
        -9.560879707336426
      ],
      [
        "বার",
        -9.561007499694824
      ],
      [
        "▁22",
        -9.562211036682129
      ],
      [
        "▁सुरू",
        -9.562437057495117
      ],
      [
        "▁उस",
        -9.562479972839355
      ],
      [
        "▁ਲਿਆ",
        -9.562817573547363
      ],
      [
        "▁କୁ",
        -9.563638687133789
      ],
      [
        "़",
        -9.563872337341309
      ],
      [
        "दार",
        -9.56424331665039
      ],
      [
        "20",
        -9.564565658569336
      ],
      [
        "▁मुख्यमंत्री",
        -9.5658540725708
      ],
      [
        "▁them",
        -9.565927505493164
      ],
      [
        "▁मु",
        -9.566595077514648
      ],
      [
        "—",
        -9.567673683166504
      ],
      [
        "▁ਹੁਣ",
        -9.56846809387207
      ],
      [
        "क्",
        -9.56910228729248
      ],
      [
        "▁करता",
        -9.56941032409668
      ],
      [
        "▁ত",
        -9.569560050964355
      ],
      [
        "▁अशी",
        -9.569727897644043
      ],
      [
        "ीत",
        -9.569782257080078
      ],
      [
        "ਣਾ",
        -9.570184707641602
      ],
      [
        "▁ਪਾਰਟੀ",
        -9.570305824279785
      ],
      [
        "ంలో",
        -9.570426940917969
      ],
      [
        "la",
        -9.57091236114502
      ],
      [
        "▁இல்லை",
        -9.571240425109863
      ],
      [
        "▁राज",
        -9.57190990447998
      ],
      [
        "▁ଆଉ",
        -9.57198715209961
      ],
      [
        "▁ప్ర",
        -9.572062492370605
      ],
      [
        "▁মতে",
        -9.57249927520752
      ],
      [
        "▁બ",
        -9.572660446166992
      ],
      [
        "▁ಮೂಲಕ",
        -9.572747230529785
      ],
      [
        "▁बीच",
        -9.573260307312012
      ],
      [
        "▁ਆਪਣੀ",
        -9.573535919189453
      ],
      [
        "ನಾ",
        -9.574073791503906
      ],
      [
        "▁ત્યારે",
        -9.574783325195312
      ],
      [
        "▁ନିଜ",
        -9.574799537658691
      ],
      [
        "▁র",
        -9.575944900512695
      ],
      [
        "▁कार्य",
        -9.576106071472168
      ],
      [
        "▁অংশ",
        -9.57668399810791
      ],
      [
        "▁Minister",
        -9.576735496520996
      ],
      [
        "▁मंत्री",
        -9.57680606842041
      ],
      [
        "ವೇ",
        -9.577041625976562
      ],
      [
        "▁എസ്",
        -9.577210426330566
      ],
      [
        "▁असा",
        -9.577445983886719
      ],
      [
        "ுள்ளார்",
        -9.57779598236084
      ],
      [
        "▁)",
        -9.578516960144043
      ],
      [
        "▁কম",
        -9.578847885131836
      ],
      [
        "ଥିବା",
        -9.579187393188477
      ],
      [
        "▁சு",
        -9.579365730285645
      ],
      [
        "வில்",
        -9.579977989196777
      ],
      [
        "▁আদি",
        -9.58059310913086
      ],
      [
        "▁পা",
        -9.580594062805176
      ],
      [
        "na",
        -9.581418991088867
      ],
      [
        "ோ",
        -9.581457138061523
      ],
      [
        "ପି",
        -9.58199691772461
      ],
      [
        "▁તેને",
        -9.582408905029297
      ],
      [
        "વામાં",
        -9.583300590515137
      ],
      [
        "ଟା",
        -9.5833740234375
      ],
      [
        "▁మా",
        -9.583401679992676
      ],
      [
        "▁E",
        -9.583410263061523
      ],
      [
        "▁वो",
        -9.583436012268066
      ],
      [
        "▁ल",
        -9.58349323272705
      ],
      [
        "মি",
        -9.58409309387207
      ],
      [
        "P",
        -9.584771156311035
      ],
      [
        "▁Indian",
        -9.5855131149292
      ],
      [
        "%",
        -9.58554744720459
      ],
      [
        "▁అది",
        -9.58577823638916
      ],
      [
        "ti",
        -9.586647033691406
      ],
      [
        "রি",
        -9.587384223937988
      ],
      [
        "த்திற்கு",
        -9.587943077087402
      ],
      [
        "▁कमी",
        -9.587959289550781
      ],
      [
        "રો",
        -9.587996482849121
      ],
      [
        "▁ಎ",
        -9.58860969543457
      ],
      [
        "ದೆ",
        -9.588725090026855
      ],
      [
        "▁ਹੋਇਆ",
        -9.589470863342285
      ],
      [
        "ଡ",
        -9.589661598205566
      ],
      [
        "▁କରିଛି",
        -9.590047836303711
      ],
      [
        "ಯಿಂದ",
        -9.590213775634766
      ],
      [
        "▁वाली",
        -9.590302467346191
      ],
      [
        "▁un",
        -9.590564727783203
      ],
      [
        "▁வரை",
        -9.590723037719727
      ],
      [
        "▁first",
        -9.591294288635254
      ],
      [
        "▁ज",
        -9.591672897338867
      ],
      [
        "రీ",
        -9.592209815979004
      ],
      [
        "▁पूर्व",
        -9.592418670654297
      ],
      [
        "▁পাছত",
        -9.592961311340332
      ],
      [
        "▁प्रति",
        -9.593343734741211
      ],
      [
        "▁মাজত",
        -9.59390926361084
      ],
      [
        "▁চা",
        -9.593914985656738
      ],
      [
        "ിരുന്നു",
        -9.594139099121094
      ],
      [
        "▁लोक",
        -9.594383239746094
      ],
      [
        "વી",
        -9.59459114074707
      ],
      [
        "▁उसके",
        -9.594942092895508
      ],
      [
        "রে",
        -9.595063209533691
      ],
      [
        "▁মোৰ",
        -9.595802307128906
      ],
      [
        "▁হৈছে৷",
        -9.595813751220703
      ],
      [
        "▁হয়৷",
        -9.595890998840332
      ],
      [
        "ক্ষ",
        -9.596142768859863
      ],
      [
        "▁ઉપયોગ",
        -9.59691047668457
      ],
      [
        "மி",
        -9.596990585327148
      ],
      [
        "ற்ற",
        -9.597126007080078
      ],
      [
        "▁Delhi",
        -9.597195625305176
      ],
      [
        "G",
        -9.598215103149414
      ],
      [
        "▁অন্য",
        -9.599471092224121
      ],
      [
        "ाई",
        -9.599506378173828
      ],
      [
        "▁মহিলা",
        -9.600385665893555
      ],
      [
        "प्र",
        -9.600859642028809
      ],
      [
        "▁अन्य",
        -9.600947380065918
      ],
      [
        "▁ఉంటుంది",
        -9.600970268249512
      ],
      [
        "▁ನಲ್ಲಿ",
        -9.601202011108398
      ],
      [
        "▁चार",
        -9.602245330810547
      ],
      [
        "▁अशा",
        -9.602300643920898
      ],
      [
        "பா",
        -9.602924346923828
      ],
      [
        "ாத",
        -9.603299140930176
      ],
      [
        "▁ସମୟରେ",
        -9.603617668151855
      ],
      [
        "▁झाला",
        -9.60372257232666
      ],
      [
        "ਿੰਗ",
        -9.604673385620117
      ],
      [
        "▁तथा",
        -9.60506534576416
      ],
      [
        "▁state",
        -9.606325149536133
      ],
      [
        "▁અન્ય",
        -9.608099937438965
      ],
      [
        "ଣ୍ଡ",
        -9.608407020568848
      ],
      [
        "▁বছর",
        -9.60893440246582
      ],
      [
        "▁আনহাতে",
        -9.609498977661133
      ],
      [
        "▁জানান",
        -9.610705375671387
      ],
      [
        "ഷ",
        -9.61108112335205
      ],
      [
        "▁new",
        -9.611637115478516
      ],
      [
        "K",
        -9.611775398254395
      ],
      [
        "▁बंद",
        -9.611848831176758
      ],
      [
        "▁জ",
        -9.612504005432129
      ],
      [
        "▁বড়",
        -9.612826347351074
      ],
      [
        "▁மக்கள்",
        -9.613870620727539
      ],
      [
        "▁ହୋଇଥିବା",
        -9.61400032043457
      ],
      [
        "ਰੇ",
        -9.615250587463379
      ],
      [
        "▁र",
        -9.616426467895508
      ],
      [
        "▁୩",
        -9.616525650024414
      ],
      [
        "▁টি",
        -9.617327690124512
      ],
      [
        "▁ৰাজ্য",
        -9.617645263671875
      ],
      [
        "્યો",
        -9.617650985717773
      ],
      [
        "ફ",
        -9.617656707763672
      ],
      [
        "টোৰ",
        -9.617833137512207
      ],
      [
        "രി",
        -9.618062973022461
      ],
      [
        "▁जाते",
        -9.618258476257324
      ],
      [
        "▁ती",
        -9.618987083435059
      ],
      [
        "▁গ্ৰহণ",
        -9.619542121887207
      ],
      [
        "जा",
        -9.619955062866211
      ],
      [
        "ತ್ತ",
        -9.620293617248535
      ],
      [
        "ਵਾ",
        -9.620598793029785
      ],
      [
        "ിച്ചു",
        -9.62074089050293
      ],
      [
        "▁জানা",
        -9.620882034301758
      ],
      [
        "▁ତା",
        -9.62110710144043
      ],
      [
        "▁ਏ",
        -9.621481895446777
      ],
      [
        "ষ",
        -9.62158489227295
      ],
      [
        "ਕੇ",
        -9.621646881103516
      ],
      [
        "▁ઉ",
        -9.62173843383789
      ],
      [
        "▁ବିଭିନ୍ନ",
        -9.622982025146484
      ],
      [
        "ിനെ",
        -9.623257637023926
      ],
      [
        "ான்",
        -9.623549461364746
      ],
      [
        "▁গত",
        -9.623672485351562
      ],
      [
        "▁चाहिए",
        -9.625846862792969
      ],
      [
        "▁গা",
        -9.625914573669434
      ],
      [
        "▁उनकी",
        -9.625964164733887
      ],
      [
        "ட்டு",
        -9.62629222869873
      ],
      [
        "▁ଅଭିଯୋଗ",
        -9.626513481140137
      ],
      [
        "▁ব্যৱস্থা",
        -9.627106666564941
      ],
      [
        "स्ट",
        -9.62759017944336
      ],
      [
        "▁उत्तर",
        -9.628327369689941
      ],
      [
        "ਏ",
        -9.628353118896484
      ],
      [
        "▁கு",
        -9.629152297973633
      ],
      [
        "▁ଶ୍ରୀ",
        -9.62939453125
      ],
      [
        "▁40",
        -9.62951374053955
      ],
      [
        "▁সিদ্ধান্ত",
        -9.629568099975586
      ],
      [
        "▁ਕੁਮਾਰ",
        -9.630385398864746
      ],
      [
        "ul",
        -9.630585670471191
      ],
      [
        "▁उसे",
        -9.63107967376709
      ],
      [
        "വര്",
        -9.631275177001953
      ],
      [
        "▁ಸಿ",
        -9.631680488586426
      ],
      [
        "▁৪",
        -9.632059097290039
      ],
      [
        "▁బ",
        -9.633248329162598
      ],
      [
        "पुर",
        -9.633673667907715
      ],
      [
        "▁शुरू",
        -9.634211540222168
      ],
      [
        "▁she",
        -9.634293556213379
      ],
      [
        "▁ଲାଗି",
        -9.634662628173828
      ],
      [
        "▁வரும்",
        -9.636810302734375
      ],
      [
        "▁ಎಂಬ",
        -9.637221336364746
      ],
      [
        "িয়ে",
        -9.63735580444336
      ],
      [
        "கி",
        -9.637432098388672
      ],
      [
        "el",
        -9.637646675109863
      ],
      [
        "▁ਆਈ",
        -9.637833595275879
      ],
      [
        "▁ഷ",
        -9.637873649597168
      ],
      [
        "ুল",
        -9.639348030090332
      ],
      [
        "ழ",
        -9.639459609985352
      ],
      [
        "ಯು",
        -9.63988208770752
      ],
      [
        "▁ভ",
        -9.640070915222168
      ],
      [
        "▁বিষয়া",
        -9.640484809875488
      ],
      [
        "▁23",
        -9.640564918518066
      ],
      [
        "ೂ",
        -9.640642166137695
      ],
      [
        "▁കാ",
        -9.641483306884766
      ],
      [
        "ங்களில்",
        -9.641626358032227
      ],
      [
        "ટી",
        -9.642132759094238
      ],
      [
        "று",
        -9.642480850219727
      ],
      [
        "జ",
        -9.643020629882812
      ],
      [
        "প্র",
        -9.643263816833496
      ],
      [
        "జ్",
        -9.643942832946777
      ],
      [
        "തി",
        -9.644448280334473
      ],
      [
        "▁ଅଧିକ",
        -9.64578628540039
      ],
      [
        "ರಾ",
        -9.645828247070312
      ],
      [
        "▁উল্লেখ",
        -9.646014213562012
      ],
      [
        "▁भाजपा",
        -9.6461820602417
      ],
      [
        "ાય",
        -9.646456718444824
      ],
      [
        "ਮਾ",
        -9.646888732910156
      ],
      [
        "ண",
        -9.647595405578613
      ],
      [
        "▁ਜਾਣਕਾਰੀ",
        -9.648648262023926
      ],
      [
        "ో",
        -9.6492919921875
      ],
      [
        "வர்கள்",
        -9.65052604675293
      ],
      [
        "▁পথ",
        -9.650739669799805
      ],
      [
        "▁दोनों",
        -9.650951385498047
      ],
      [
        "ছি",
        -9.65124225616455
      ],
      [
        "▁প্ৰদান",
        -9.651841163635254
      ],
      [
        "▁like",
        -9.651898384094238
      ],
      [
        "▁શકો",
        -9.652332305908203
      ],
      [
        "▁হতে",
        -9.652566909790039
      ],
      [
        "et",
        -9.652704238891602
      ],
      [
        "নী",
        -9.65278148651123
      ],
      [
        "▁୫",
        -9.65298080444336
      ],
      [
        "▁into",
        -9.653127670288086
      ],
      [
        "ਟੀ",
        -9.653239250183105
      ],
      [
        "▁চেষ্টা",
        -9.653943061828613
      ],
      [
        "ీ",
        -9.654181480407715
      ],
      [
        "থ",
        -9.654603958129883
      ],
      [
        "▁રહી",
        -9.65473747253418
      ],
      [
        "ରୀ",
        -9.655009269714355
      ],
      [
        "▁ಬ",
        -9.655292510986328
      ],
      [
        "ੁ",
        -9.655649185180664
      ],
      [
        "▁चुनाव",
        -9.656828880310059
      ],
      [
        "றி",
        -9.658164978027344
      ],
      [
        "ic",
        -9.658590316772461
      ],
      [
        "▁ख",
        -9.658659934997559
      ],
      [
        "▁यहां",
        -9.65872859954834
      ],
      [
        "▁ਤਰ੍ਹਾਂ",
        -9.659451484680176
      ],
      [
        "ୋ",
        -9.66023063659668
      ],
      [
        "ਿਕ",
        -9.660651206970215
      ],
      [
        "▁ತ",
        -9.661040306091309
      ],
      [
        "▁मामले",
        -9.661307334899902
      ],
      [
        "માંથી",
        -9.661467552185059
      ],
      [
        "▁आला",
        -9.661885261535645
      ],
      [
        "ಟಿ",
        -9.662172317504883
      ],
      [
        "▁দেওয়া",
        -9.662477493286133
      ],
      [
        "▁માત્ર",
        -9.662538528442383
      ],
      [
        "इ",
        -9.662759780883789
      ],
      [
        "▁बन",
        -9.66283130645752
      ],
      [
        "▁નહીં",
        -9.66304874420166
      ],
      [
        "ുകയും",
        -9.663080215454102
      ],
      [
        "ਖ",
        -9.66313362121582
      ],
      [
        "▁ಆಗ",
        -9.663161277770996
      ],
      [
        "▁ସୁ",
        -9.664286613464355
      ],
      [
        "▁கோ",
        -9.666178703308105
      ],
      [
        "ତି",
        -9.666216850280762
      ],
      [
        "াৰ",
        -9.667255401611328
      ],
      [
        "गा",
        -9.667877197265625
      ],
      [
        "ങ്ങളും",
        -9.668024063110352
      ],
      [
        "ਂ",
        -9.668113708496094
      ],
      [
        "▁কৰিলে",
        -9.668614387512207
      ],
      [
        "ై",
        -9.668790817260742
      ],
      [
        "ਕਾ",
        -9.669245719909668
      ],
      [
        "▁വര്",
        -9.669567108154297
      ],
      [
        "ଥିଲା",
        -9.669983863830566
      ],
      [
        "▁ਕਮੇਟੀ",
        -9.670207977294922
      ],
      [
        "నీ",
        -9.67065143585205
      ],
      [
        "▁भर",
        -9.671980857849121
      ],
      [
        "▁প্ৰকাশ",
        -9.672993659973145
      ],
      [
        "▁ऐसे",
        -9.673225402832031
      ],
      [
        "▁ਘਰ",
        -9.67446231842041
      ],
      [
        "▁ନି",
        -9.6745023727417
      ],
      [
        "able",
        -9.674856185913086
      ],
      [
        "▁कुमार",
        -9.674908638000488
      ],
      [
        "▁than",
        -9.67509937286377
      ],
      [
        "ડા",
        -9.67528247833252
      ],
      [
        "▁ৰাজ্যৰ",
        -9.676156997680664
      ],
      [
        "ಿತ",
        -9.676607131958008
      ],
      [
        "▁చేశారు",
        -9.676775932312012
      ],
      [
        "▁ਐਸ",
        -9.679176330566406
      ],
      [
        "ચ",
        -9.679563522338867
      ],
      [
        "▁बे",
        -9.680047988891602
      ],
      [
        "▁আৰক্ষীয়ে",
        -9.680619239807129
      ],
      [
        "▁ಬಿ",
        -9.680843353271484
      ],
      [
        "▁केंद्र",
        -9.680898666381836
      ],
      [
        "li",
        -9.680943489074707
      ],
      [
        "▁अगर",
        -9.681492805480957
      ],
      [
        "স্ত",
        -9.681829452514648
      ],
      [
        "ਈ",
        -9.682008743286133
      ],
      [
        "▁तसेच",
        -9.682114601135254
      ],
      [
        "ಿದ್ದು",
        -9.682199478149414
      ],
      [
        "ায়",
        -9.682351112365723
      ],
      [
        "ড়",
        -9.683184623718262
      ],
      [
        "ment",
        -9.684194564819336
      ],
      [
        "▁ਗੱਲ",
        -9.684220314025879
      ],
      [
        "▁>",
        -9.684951782226562
      ],
      [
        "▁police",
        -9.685300827026367
      ],
      [
        "▁ਮੰਗ",
        -9.685918807983398
      ],
      [
        "▁मा",
        -9.687042236328125
      ],
      [
        "వు",
        -9.68723201751709
      ],
      [
        "▁R",
        -9.687261581420898
      ],
      [
        "▁તેની",
        -9.687668800354004
      ],
      [
        "▁राम",
        -9.688036918640137
      ],
      [
        "▁ਸਕਦੇ",
        -9.688323974609375
      ],
      [
        "▁କୌଣସି",
        -9.688823699951172
      ],
      [
        "ଜି",
        -9.689064979553223
      ],
      [
        "▁হাজার",
        -9.689238548278809
      ],
      [
        "ંગ",
        -9.689257621765137
      ],
      [
        "েন",
        -9.68959903717041
      ],
      [
        "▁நிலையில்",
        -9.689804077148438
      ],
      [
        "াই",
        -9.689897537231445
      ],
      [
        "পুর",
        -9.690114974975586
      ],
      [
        "लं",
        -9.6904296875
      ],
      [
        "▁যেন",
        -9.69064712524414
      ],
      [
        "▁पा",
        -9.690766334533691
      ],
      [
        "▁ভোট",
        -9.690827369689941
      ],
      [
        "▁লগত",
        -9.690869331359863
      ],
      [
        "▁ହେଲେ",
        -9.691692352294922
      ],
      [
        "మి",
        -9.692111015319824
      ],
      [
        "▁കഴിഞ്ഞ",
        -9.692414283752441
      ],
      [
        "চা",
        -9.692473411560059
      ],
      [
        "▁माहिती",
        -9.692499160766602
      ],
      [
        "▁இந்திய",
        -9.692745208740234
      ],
      [
        "▁৬",
        -9.693028450012207
      ],
      [
        "▁પ્ર",
        -9.693589210510254
      ],
      [
        "తి",
        -9.693632125854492
      ],
      [
        "▁ସହିତ",
        -9.693852424621582
      ],
      [
        "▁पक्ष",
        -9.694018363952637
      ],
      [
        "▁years",
        -9.694426536560059
      ],
      [
        "ਪੁਰ",
        -9.694489479064941
      ],
      [
        "▁বিষয়ে",
        -9.694703102111816
      ],
      [
        "▁এম",
        -9.695064544677734
      ],
      [
        "▁ਕਰਨਾ",
        -9.695158958435059
      ],
      [
        "િક",
        -9.695423126220703
      ],
      [
        "ौ",
        -9.695557594299316
      ],
      [
        "ಿದ್ದರು",
        -9.695862770080566
      ],
      [
        "▁அவர்கள்",
        -9.697916030883789
      ],
      [
        "র্",
        -9.698088645935059
      ],
      [
        "▁2014",
        -9.698161125183105
      ],
      [
        "▁ਵ",
        -9.698424339294434
      ],
      [
        "ਪੀ",
        -9.698702812194824
      ],
      [
        "ச்ச",
        -9.698927879333496
      ],
      [
        "▁মৃত্যু",
        -9.699015617370605
      ],
      [
        "▁બાદ",
        -9.700136184692383
      ],
      [
        "નાં",
        -9.70015811920166
      ],
      [
        "▁చేయ",
        -9.700521469116211
      ],
      [
        "▁ഐ",
        -9.700887680053711
      ],
      [
        "▁ರ",
        -9.700927734375
      ],
      [
        "ै",
        -9.701273918151855
      ],
      [
        "टा",
        -9.70172119140625
      ],
      [
        "ಜ",
        -9.702266693115234
      ],
      [
        "▁ర",
        -9.702425003051758
      ],
      [
        "▁W",
        -9.702836990356445
      ],
      [
        "ীয়",
        -9.702950477600098
      ],
      [
        "ૂ",
        -9.702975273132324
      ],
      [
        "ులు",
        -9.703046798706055
      ],
      [
        "▁ಕೆ",
        -9.703418731689453
      ],
      [
        "ीय",
        -9.703631401062012
      ],
      [
        "▁त्यांना",
        -9.704504013061523
      ],
      [
        "▁ਰੁਪਏ",
        -9.70468807220459
      ],
      [
        "▁કારણ",
        -9.704781532287598
      ],
      [
        "▁आपको",
        -9.70535945892334
      ],
      [
        "▁মন",
        -9.70599365234375
      ],
      [
        "▁বন",
        -9.706975936889648
      ],
      [
        "▁এছ",
        -9.707457542419434
      ],
      [
        "ష్",
        -9.707756996154785
      ],
      [
        "▁ਸਬੰਧੀ",
        -9.707894325256348
      ],
      [
        "▁হাত",
        -9.708127975463867
      ],
      [
        "ീ",
        -9.708148002624512
      ],
      [
        "లే",
        -9.708273887634277
      ],
      [
        "▁ਦੇਣ",
        -9.708513259887695
      ],
      [
        "ಪ್ಪ",
        -9.708660125732422
      ],
      [
        "▁ছ",
        -9.708710670471191
      ],
      [
        "ive",
        -9.708944320678711
      ],
      [
        "▁୪",
        -9.709006309509277
      ],
      [
        "▁ছবি",
        -9.709036827087402
      ],
      [
        "ity",
        -9.709160804748535
      ],
      [
        "യോ",
        -9.709213256835938
      ],
      [
        "▁સમય",
        -9.710078239440918
      ],
      [
        "क्ष",
        -9.710212707519531
      ],
      [
        "▁എം",
        -9.710415840148926
      ],
      [
        "▁only",
        -9.710447311401367
      ],
      [
        "▁જોઈએ",
        -9.710477828979492
      ],
      [
        "કા",
        -9.710517883300781
      ],
      [
        "▁అన్ని",
        -9.71073055267334
      ],
      [
        "সি",
        -9.711003303527832
      ],
      [
        "▁দিব",
        -9.711654663085938
      ],
      [
        "গা",
        -9.711777687072754
      ],
      [
        "ବେ",
        -9.71184253692627
      ],
      [
        "▁ശ",
        -9.712553024291992
      ],
      [
        "▁নে",
        -9.712739944458008
      ],
      [
        "ിക്ക",
        -9.713404655456543
      ],
      [
        "ತಿ",
        -9.713481903076172
      ],
      [
        "▁अपना",
        -9.713724136352539
      ],
      [
        "▁পৰি",
        -9.714512825012207
      ],
      [
        "ું",
        -9.714701652526855
      ],
      [
        "▁প্ৰতি",
        -9.7151517868042
      ],
      [
        "ॉ",
        -9.71515941619873
      ],
      [
        "कडे",
        -9.715461730957031
      ],
      [
        "▁लगा",
        -9.716865539550781
      ],
      [
        "▁செய்த",
        -9.718894958496094
      ],
      [
        "ma",
        -9.71890926361084
      ],
      [
        "ಿದರು",
        -9.719143867492676
      ],
      [
        "▁జ",
        -9.71920108795166
      ],
      [
        "▁ਕੀ",
        -9.72036075592041
      ],
      [
        "▁J",
        -9.721426963806152
      ],
      [
        "▁ହୋଇଥିଲା",
        -9.722646713256836
      ],
      [
        "ষ্ট",
        -9.723909378051758
      ],
      [
        "ছেন",
        -9.723997116088867
      ],
      [
        "▁বেশি",
        -9.724161148071289
      ],
      [
        "▁काय",
        -9.724745750427246
      ],
      [
        "se",
        -9.725149154663086
      ],
      [
        "▁—",
        -9.72581958770752
      ],
      [
        "▁मुख्य",
        -9.72591781616211
      ],
      [
        "3",
        -9.726338386535645
      ],
      [
        "യുള്ള",
        -9.727296829223633
      ],
      [
        "മ്പ",
        -9.727367401123047
      ],
      [
        "ठ",
        -9.727740287780762
      ],
      [
        "ধ",
        -9.728519439697266
      ],
      [
        "ణ",
        -9.728527069091797
      ],
      [
        "▁ജ",
        -9.729950904846191
      ],
      [
        "ക്കു",
        -9.730151176452637
      ],
      [
        "▁देने",
        -9.730152130126953
      ],
      [
        "▁পর্যন্ত",
        -9.730347633361816
      ],
      [
        "▁Singh",
        -9.730509757995605
      ],
      [
        "▁দেশৰ",
        -9.73062801361084
      ],
      [
        "एं",
        -9.731224060058594
      ],
      [
        "ಲಾಗಿದೆ",
        -9.731359481811523
      ],
      [
        "▁ತನ್ನ",
        -9.731897354125977
      ],
      [
        "▁ഇത്",
        -9.732382774353027
      ],
      [
        "▁ਗ",
        -9.73269271850586
      ],
      [
        "▁करोड़",
        -9.732769012451172
      ],
      [
        "▁এমন",
        -9.73280143737793
      ],
      [
        "ப்படும்",
        -9.733219146728516
      ],
      [
        "▁ଦଳ",
        -9.733506202697754
      ],
      [
        "▁ਜਾਂਦਾ",
        -9.734111785888672
      ],
      [
        "▁জে",
        -9.734183311462402
      ],
      [
        "▁am",
        -9.73427677154541
      ],
      [
        "ir",
        -9.73514461517334
      ],
      [
        "▁వారి",
        -9.735221862792969
      ],
      [
        "▁H",
        -9.735469818115234
      ],
      [
        "▁बा",
        -9.73577880859375
      ],
      [
        "▁ಪ್ರ",
        -9.736452102661133
      ],
      [
        "ಟ",
        -9.73741340637207
      ],
      [
        "ಲ್ಲ",
        -9.737702369689941
      ],
      [
        "పు",
        -9.737874984741211
      ],
      [
        "▁ಹೆಚ್ಚು",
        -9.738030433654785
      ],
      [
        "▁con",
        -9.738350868225098
      ],
      [
        "ৰো",
        -9.73867416381836
      ],
      [
        "▁ద్వారా",
        -9.738994598388672
      ],
      [
        "ଆ",
        -9.740084648132324
      ],
      [
        "▁আইন",
        -9.740188598632812
      ],
      [
        "ভি",
        -9.741625785827637
      ],
      [
        "▁रंग",
        -9.741658210754395
      ],
      [
        "मी",
        -9.742513656616211
      ],
      [
        "▁ଦେଇ",
        -9.74262523651123
      ],
      [
        "ವಾ",
        -9.742874145507812
      ],
      [
        "▁2016",
        -9.743024826049805
      ],
      [
        "▁ਚੋਣ",
        -9.74353313446045
      ],
      [
        "శ",
        -9.743560791015625
      ],
      [
        "▁হিসেবে",
        -9.74362564086914
      ],
      [
        "गी",
        -9.74370288848877
      ],
      [
        "നെ",
        -9.743850708007812
      ],
      [
        "▁आरोप",
        -9.743924140930176
      ],
      [
        "▁விட",
        -9.744330406188965
      ],
      [
        "ಮಾ",
        -9.74500560760498
      ],
      [
        "ra",
        -9.745553016662598
      ],
      [
        "▁ହ",
        -9.745553016662598
      ],
      [
        "▁రెండు",
        -9.745893478393555
      ],
      [
        "▁करें",
        -9.74615478515625
      ],
      [
        "▁ਇਨ੍ਹਾਂ",
        -9.746397972106934
      ],
      [
        "▁বিধায়ক",
        -9.746892929077148
      ],
      [
        "▁தர",
        -9.746996879577637
      ],
      [
        "▁ਗੁਰੂ",
        -9.747544288635254
      ],
      [
        "▁निर्णय",
        -9.747709274291992
      ],
      [
        "▁last",
        -9.748261451721191
      ],
      [
        "ಲಾ",
        -9.748319625854492
      ],
      [
        "▁ਵੱਧ",
        -9.749226570129395
      ],
      [
        "▁do",
        -9.749492645263672
      ],
      [
        "▁ਕਰਦਾ",
        -9.749776840209961
      ],
      [
        "▁28",
        -9.75005054473877
      ],
      [
        "पा",
        -9.750371932983398
      ],
      [
        "কার",
        -9.750611305236816
      ],
      [
        "▁ਪਾਣੀ",
        -9.751664161682129
      ],
      [
        "▁खिलाफ",
        -9.75168514251709
      ],
      [
        "போது",
        -9.751748085021973
      ],
      [
        "▁প্রধান",
        -9.752243995666504
      ],
      [
        "▁ਜਾਵੇਗਾ",
        -9.752713203430176
      ],
      [
        "▁ખૂબ",
        -9.752815246582031
      ],
      [
        "దు",
        -9.753146171569824
      ],
      [
        "▁26",
        -9.753609657287598
      ],
      [
        "▁any",
        -9.754254341125488
      ],
      [
        "▁ତାଙ୍କୁ",
        -9.754622459411621
      ],
      [
        "യ്ക്ക്",
        -9.754883766174316
      ],
      [
        "▁ਭਾਰਤ",
        -9.755107879638672
      ],
      [
        "ள்",
        -9.75557804107666
      ],
      [
        "▁ਚਾਹੀਦਾ",
        -9.755784034729004
      ],
      [
        "▁ज्यादा",
        -9.755881309509277
      ],
      [
        "▁ಇ",
        -9.756353378295898
      ],
      [
        "ଉ",
        -9.756426811218262
      ],
      [
        "▁some",
        -9.757126808166504
      ],
      [
        "▁समाज",
        -9.75728988647461
      ],
      [
        "ദ്",
        -9.757855415344238
      ],
      [
        "ొ",
        -9.758002281188965
      ],
      [
        "▁পরে",
        -9.758068084716797
      ],
      [
        "▁সমস্যা",
        -9.758451461791992
      ],
      [
        "▁যি",
        -9.758554458618164
      ],
      [
        "▁ਹੁੰਦਾ",
        -9.759103775024414
      ],
      [
        "ासाठी",
        -9.759757041931152
      ],
      [
        "ne",
        -9.75989055633545
      ],
      [
        "▁भ",
        -9.760139465332031
      ],
      [
        "মে",
        -9.760320663452148
      ],
      [
        "লী",
        -9.760418891906738
      ],
      [
        "▁உள்ளது",
        -9.760871887207031
      ],
      [
        "▁போது",
        -9.761224746704102
      ],
      [
        "▁me",
        -9.76142692565918
      ],
      [
        "▁being",
        -9.761460304260254
      ],
      [
        "▁দিকে",
        -9.761797904968262
      ],
      [
        "മി",
        -9.763235092163086
      ],
      [
        "▁ଦୁଇ",
        -9.763850212097168
      ],
      [
        "ଚ",
        -9.76398754119873
      ],
      [
        "▁সহ",
        -9.764753341674805
      ],
      [
        "▁లేదు",
        -9.764857292175293
      ],
      [
        "▁ପୁଲିସ",
        -9.764917373657227
      ],
      [
        "▁ਤ",
        -9.764967918395996
      ],
      [
        "▁অভিযান",
        -9.765204429626465
      ],
      [
        "▁સૌથી",
        -9.76563835144043
      ],
      [
        "▁গ্রহণ",
        -9.766373634338379
      ],
      [
        "▁ಸು",
        -9.766475677490234
      ],
      [
        "▁સા",
        -9.766963005065918
      ],
      [
        "▁હ",
        -9.768169403076172
      ],
      [
        "▁L",
        -9.769439697265625
      ],
      [
        "▁ਕਾਂਗਰਸ",
        -9.76950740814209
      ],
      [
        "▁ബ",
        -9.770096778869629
      ],
      [
        "▁হা",
        -9.770467758178711
      ],
      [
        "▁खा",
        -9.770668983459473
      ],
      [
        "▁ହେବା",
        -9.770721435546875
      ],
      [
        "ాలను",
        -9.770731925964355
      ],
      [
        "▁ર",
        -9.770792007446289
      ],
      [
        "▁వారు",
        -9.770821571350098
      ],
      [
        "]",
        -9.771297454833984
      ],
      [
        "▁ನೀಡ",
        -9.771544456481934
      ],
      [
        "த்தி",
        -9.77223014831543
      ],
      [
        "ತ್",
        -9.772534370422363
      ],
      [
        "▁செ",
        -9.77291488647461
      ],
      [
        "▁भाग",
        -9.773036003112793
      ],
      [
        "▁Updated",
        -9.773482322692871
      ],
      [
        "▁സാ",
        -9.773655891418457
      ],
      [
        "▁দায়িত্ব",
        -9.7737455368042
      ],
      [
        "▁தனது",
        -9.774227142333984
      ],
      [
        "▁చేసిన",
        -9.774478912353516
      ],
      [
        "▁विशेष",
        -9.774510383605957
      ],
      [
        "▁வா",
        -9.774857521057129
      ],
      [
        "▁ബി",
        -9.775343894958496
      ],
      [
        "ള്",
        -9.77622127532959
      ],
      [
        "ધ",
        -9.7764253616333
      ],
      [
        "▁அதை",
        -9.776741027832031
      ],
      [
        "▁ଗ",
        -9.778183937072754
      ],
      [
        "ांचा",
        -9.778274536132812
      ],
      [
        "▁करत",
        -9.778460502624512
      ],
      [
        "z",
        -9.778505325317383
      ],
      [
        "▁মুখ্য",
        -9.77859115600586
      ],
      [
        "గ్",
        -9.779197692871094
      ],
      [
        "ാന",
        -9.779401779174805
      ],
      [
        "▁कार्यक्रम",
        -9.77969741821289
      ],
      [
        "ಯೇ",
        -9.779825210571289
      ],
      [
        "▁ଭୁବନେଶ୍ୱର",
        -9.78097152709961
      ],
      [
        "দিন",
        -9.78108024597168
      ],
      [
        "x",
        -9.781421661376953
      ],
      [
        "▁करण्यासाठी",
        -9.781477928161621
      ],
      [
        "చ",
        -9.78167724609375
      ],
      [
        "ূ",
        -9.782121658325195
      ],
      [
        "ent",
        -9.782299995422363
      ],
      [
        "▁जीवन",
        -9.782567024230957
      ],
      [
        "ವರ",
        -9.783309936523438
      ],
      [
        "▁கூட",
        -9.78374195098877
      ],
      [
        "▁কুমাৰ",
        -9.783753395080566
      ],
      [
        "▁ഡി",
        -9.784499168395996
      ],
      [
        "▁ஆண்டு",
        -9.78453540802002
      ],
      [
        "ખ",
        -9.784588813781738
      ],
      [
        "▁দৰে",
        -9.785930633544922
      ],
      [
        "▁घटना",
        -9.786460876464844
      ],
      [
        "▁મે",
        -9.786865234375
      ],
      [
        "▁তাকে",
        -9.786877632141113
      ],
      [
        "णा",
        -9.787220001220703
      ],
      [
        "ங்",
        -9.787393569946289
      ],
      [
        "મી",
        -9.789412498474121
      ],
      [
        "को",
        -9.791184425354004
      ],
      [
        "ುತ್ತಾರೆ",
        -9.792902946472168
      ],
      [
        "▁Re",
        -9.793046951293945
      ],
      [
        "ജി",
        -9.79341983795166
      ],
      [
        "▁ਆਮ",
        -9.79359245300293
      ],
      [
        "யோ",
        -9.793763160705566
      ],
      [
        "▁27",
        -9.794578552246094
      ],
      [
        "▁পুনৰ",
        -9.794711112976074
      ],
      [
        "us",
        -9.794960021972656
      ],
      [
        "▁হল",
        -9.795212745666504
      ],
      [
        "▁उप",
        -9.795706748962402
      ],
      [
        "E",
        -9.795740127563477
      ],
      [
        "ol",
        -9.795883178710938
      ],
      [
        "▁ਜ਼ਿਲ੍ਹਾ",
        -9.796306610107422
      ],
      [
        "▁निर्माण",
        -9.796772956848145
      ],
      [
        "▁ಡಿ",
        -9.79702377319336
      ],
      [
        "▁আরও",
        -9.797629356384277
      ],
      [
        "▁രൂപ",
        -9.798007011413574
      ],
      [
        "▁মন্ত্রী",
        -9.798164367675781
      ],
      [
        "▁আহি",
        -9.799147605895996
      ],
      [
        "▁ओ",
        -9.799560546875
      ],
      [
        "▁बदल",
        -9.800021171569824
      ],
      [
        "▁பு",
        -9.80087661743164
      ],
      [
        "▁বৃদ্ধি",
        -9.800957679748535
      ],
      [
        "ಲೆ",
        -9.801029205322266
      ],
      [
        "ੈ",
        -9.801042556762695
      ],
      [
        "▁৮",
        -9.801377296447754
      ],
      [
        "▁ਦੇਸ਼",
        -9.80146312713623
      ],
      [
        "ਗੇ",
        -9.801624298095703
      ],
      [
        "▁সংঘটিত",
        -9.802231788635254
      ],
      [
        "বোৰ",
        -9.802443504333496
      ],
      [
        "▁BJP",
        -9.802995681762695
      ],
      [
        "ओ",
        -9.803396224975586
      ],
      [
        "भ",
        -9.80402660369873
      ],
      [
        "▁ച",
        -9.804442405700684
      ],
      [
        "ൈ",
        -9.804457664489746
      ],
      [
        "ರಿಗೆ",
        -9.804933547973633
      ],
      [
        "▁बारे",
        -9.805624961853027
      ],
      [
        "▁ಯಾವುದೇ",
        -9.806906700134277
      ],
      [
        "▁ஏ",
        -9.807332992553711
      ],
      [
        "▁ভাৰতীয়",
        -9.807804107666016
      ],
      [
        "ಿನ",
        -9.80787181854248
      ],
      [
        "▁दर",
        -9.808171272277832
      ],
      [
        "▁ट",
        -9.808333396911621
      ],
      [
        "ত্ব",
        -9.809139251708984
      ],
      [
        "▁શું",
        -9.809325218200684
      ],
      [
        "की",
        -9.80943775177002
      ],
      [
        "▁ਤੁਸੀਂ",
        -9.809903144836426
      ],
      [
        "▁হলে",
        -9.810632705688477
      ],
      [
        "ಿಸ",
        -9.810665130615234
      ],
      [
        "N",
        -9.810918807983398
      ],
      [
        "▁હવે",
        -9.811040878295898
      ],
      [
        "▁दिवस",
        -9.8123140335083
      ],
      [
        "ాలి",
        -9.812353134155273
      ],
      [
        "્યુ",
        -9.812392234802246
      ],
      [
        "▁31",
        -9.812504768371582
      ],
      [
        "झ",
        -9.812562942504883
      ],
      [
        "ನು",
        -9.813185691833496
      ],
      [
        "▁अधिकारी",
        -9.813430786132812
      ],
      [
        "▁ప్రతి",
        -9.813536643981934
      ],
      [
        "▁ওপৰত",
        -9.81384563446045
      ],
      [
        "▁ବିଜେପି",
        -9.814651489257812
      ],
      [
        "ಬ",
        -9.814848899841309
      ],
      [
        "▁খ",
        -9.814913749694824
      ],
      [
        "▁വാ",
        -9.814916610717773
      ],
      [
        "▁প্ৰায়",
        -9.815235137939453
      ],
      [
        "▁કારણે",
        -9.815235137939453
      ],
      [
        "चं",
        -9.815842628479004
      ],
      [
        "▁ছিলেন",
        -9.81585693359375
      ],
      [
        "▁வ",
        -9.81592845916748
      ],
      [
        "പി",
        -9.815971374511719
      ],
      [
        "▁ঠিক",
        -9.816816329956055
      ],
      [
        "▁ড",
        -9.816962242126465
      ],
      [
        "▁ക്ക",
        -9.817137718200684
      ],
      [
        "▁होत",
        -9.8172607421875
      ],
      [
        "▁पाकिस्तान",
        -9.817325592041016
      ],
      [
        "ല്ല",
        -9.817341804504395
      ],
      [
        "▁ଇ",
        -9.818170547485352
      ],
      [
        "▁ఉ",
        -9.818231582641602
      ],
      [
        "▁श",
        -9.818385124206543
      ],
      [
        "▁হে",
        -9.818403244018555
      ],
      [
        "▁বিজেপিৰ",
        -9.818559646606445
      ],
      [
        "as",
        -9.818887710571289
      ],
      [
        "▁ನಮ್ಮ",
        -9.819114685058594
      ],
      [
        "തു",
        -9.82036018371582
      ],
      [
        "▁வந்து",
        -9.821107864379883
      ],
      [
        "ਮੀ",
        -9.822016716003418
      ],
      [
        "ണ്ട",
        -9.823715209960938
      ],
      [
        "▁our",
        -9.823895454406738
      ],
      [
        "ate",
        -9.825127601623535
      ],
      [
        "▁କେନ୍ଦ୍ର",
        -9.825173377990723
      ],
      [
        "▁बि",
        -9.826227188110352
      ],
      [
        "▁आवश्यक",
        -9.826942443847656
      ],
      [
        "▁କଥା",
        -9.827359199523926
      ],
      [
        "▁୨",
        -9.827866554260254
      ],
      [
        "▁ਸੁ",
        -9.82792854309082
      ],
      [
        "ಯಾ",
        -9.828184127807617
      ],
      [
        "▁ਡੀ",
        -9.828398704528809
      ],
      [
        "▁महा",
        -9.828573226928711
      ],
      [
        "▁ಪ",
        -9.82857608795166
      ],
      [
        "ଅ",
        -9.829581260681152
      ],
      [
        "▁தா",
        -9.830300331115723
      ],
      [
        "▁ऐसा",
        -9.830321311950684
      ],
      [
        "ట్లు",
        -9.830381393432617
      ],
      [
        "ించ",
        -9.830382347106934
      ],
      [
        "▁शहर",
        -9.830708503723145
      ],
      [
        "▁ফ",
        -9.83085823059082
      ],
      [
        "્ય",
        -9.831399917602539
      ],
      [
        "▁ओर",
        -9.831603050231934
      ],
      [
        "సీ",
        -9.832047462463379
      ],
      [
        "▁ઓ",
        -9.832327842712402
      ],
      [
        "बा",
        -9.832412719726562
      ],
      [
        "▁എല്ലാ",
        -9.833062171936035
      ],
      [
        "ch",
        -9.83312702178955
      ],
      [
        "▁करा",
        -9.833247184753418
      ],
      [
        "▁2015",
        -9.834080696105957
      ],
      [
        "▁মানুষ",
        -9.834132194519043
      ],
      [
        "▁him",
        -9.834425926208496
      ],
      [
        "ଡ଼",
        -9.834585189819336
      ],
      [
        "▁କୁମାର",
        -9.834725379943848
      ],
      [
        "ബ",
        -9.835046768188477
      ],
      [
        "ச்சி",
        -9.83513069152832
      ],
      [
        "▁বিরুদ্ধে",
        -9.836024284362793
      ],
      [
        "▁மூலம்",
        -9.837014198303223
      ],
      [
        "▁ਰ",
        -9.83735466003418
      ],
      [
        "▁जारी",
        -9.837501525878906
      ],
      [
        "▁ఆమె",
        -9.837913513183594
      ],
      [
        "ப்பட்டுள்ளது",
        -9.83796215057373
      ],
      [
        "▁इससे",
        -9.838397979736328
      ],
      [
        "▁गो",
        -9.83847713470459
      ],
      [
        "▁সভা",
        -9.838724136352539
      ],
      [
        "▁ਫਿਰ",
        -9.838891983032227
      ],
      [
        "তেই",
        -9.838950157165527
      ],
      [
        "▁দেশের",
        -9.838995933532715
      ],
      [
        "▁कु",
        -9.839079856872559
      ],
      [
        "▁जात",
        -9.839125633239746
      ],
      [
        "▁గ",
        -9.839232444763184
      ],
      [
        "▁নামৰ",
        -9.839516639709473
      ],
      [
        "▁পে",
        -9.83969783782959
      ],
      [
        "ia",
        -9.839814186096191
      ],
      [
        "▁നിന്നും",
        -9.840202331542969
      ],
      [
        "▁કહ્યું",
        -9.840249061584473
      ],
      [
        "சு",
        -9.840365409851074
      ],
      [
        "▁येथे",
        -9.840476036071777
      ],
      [
        "▁योजना",
        -9.840520858764648
      ],
      [
        "ंट",
        -9.84085750579834
      ],
      [
        "ਿ",
        -9.8411283493042
      ],
      [
        "્યું",
        -9.841320037841797
      ],
      [
        "સ્ટ",
        -9.841375350952148
      ],
      [
        "ମି",
        -9.84158992767334
      ],
      [
        "▁should",
        -9.842065811157227
      ],
      [
        "▁ചെയ്ത",
        -9.84248161315918
      ],
      [
        "▁অতি",
        -9.842886924743652
      ],
      [
        "▁ফলত",
        -9.843549728393555
      ],
      [
        "▁கட்சி",
        -9.844038963317871
      ],
      [
        "ோம்",
        -9.845096588134766
      ],
      [
        "▁டி",
        -9.84586238861084
      ],
      [
        "కే",
        -9.846548080444336
      ],
      [
        "▁লোকে",
        -9.846675872802734
      ],
      [
        "F",
        -9.846868515014648
      ],
      [
        "ଳା",
        -9.84702205657959
      ],
      [
        "▁গেছে",
        -9.84706974029541
      ],
      [
        "स्त",
        -9.847617149353027
      ],
      [
        "▁இரு",
        -9.8477201461792
      ],
      [
        "▁किए",
        -9.849175453186035
      ],
      [
        "▁শতাংশ",
        -9.84920883178711
      ],
      [
        "കളും",
        -9.849639892578125
      ],
      [
        "▁ভিতৰত",
        -9.850714683532715
      ],
      [
        "▁৭",
        -9.85086441040039
      ],
      [
        "▁দিতে",
        -9.850871086120605
      ],
      [
        "डा",
        -9.85132884979248
      ],
      [
        "▁என்றும்",
        -9.85169792175293
      ],
      [
        "ளி",
        -9.851990699768066
      ],
      [
        "▁while",
        -9.852212905883789
      ],
      [
        "த்துக்கு",
        -9.852295875549316
      ],
      [
        "ାଇ",
        -9.852733612060547
      ],
      [
        "ଭ",
        -9.853656768798828
      ],
      [
        "▁অধিক",
        -9.854633331298828
      ],
      [
        "ೌ",
        -9.854757308959961
      ],
      [
        "▁উক্ত",
        -9.854982376098633
      ],
      [
        "ந",
        -9.855066299438477
      ],
      [
        "খা",
        -9.85517692565918
      ],
      [
        "ಶ",
        -9.85582160949707
      ],
      [
        "ां",
        -9.856051445007324
      ],
      [
        "▁നി",
        -9.856500625610352
      ],
      [
        "▁मिल",
        -9.856518745422363
      ],
      [
        "▁ಗೆ",
        -9.85658073425293
      ],
      [
        "▁মুখ",
        -9.856805801391602
      ],
      [
        "▁সাথে",
        -9.85698127746582
      ],
      [
        "ya",
        -9.857163429260254
      ],
      [
        "▁रि",
        -9.857320785522461
      ],
      [
        "▁বিষয়",
        -9.857478141784668
      ],
      [
        "ಿಸಿ",
        -9.857479095458984
      ],
      [
        "▁Congress",
        -9.857924461364746
      ],
      [
        "ହା",
        -9.85878849029541
      ],
      [
        "તો",
        -9.858816146850586
      ],
      [
        "▁ପୂର୍ବରୁ",
        -9.858969688415527
      ],
      [
        "▁ജി",
        -9.858994483947754
      ],
      [
        "્",
        -9.859700202941895
      ],
      [
        "▁श्री",
        -9.859951972961426
      ],
      [
        "▁વ",
        -9.859989166259766
      ],
      [
        "▁২০",
        -9.860403060913086
      ],
      [
        "▁ಸಂ",
        -9.860445976257324
      ],
      [
        "ীৰ",
        -9.860651016235352
      ],
      [
        "रो",
        -9.860973358154297
      ],
      [
        "ಮಿ",
        -9.861174583435059
      ],
      [
        "▁કર્યો",
        -9.861466407775879
      ],
      [
        "▁స్",
        -9.861856460571289
      ],
      [
        "▁ಗ",
        -9.86220645904541
      ],
      [
        "ങ്ങ",
        -9.862822532653809
      ],
      [
        "▁રહ્યા",
        -9.862909317016602
      ],
      [
        "▁સામે",
        -9.863337516784668
      ],
      [
        "▁മാ",
        -9.86335277557373
      ],
      [
        "▁કરીને",
        -9.86368179321289
      ],
      [
        "▁ডিজিটেল",
        -9.863813400268555
      ],
      [
        "▁સં",
        -9.864190101623535
      ],
      [
        "▁त्याच्या",
        -9.864940643310547
      ],
      [
        "ंद",
        -9.86495304107666
      ],
      [
        "▁আলোচনা",
        -9.865130424499512
      ],
      [
        "▁ત્યાં",
        -9.86603832244873
      ],
      [
        "▁কী",
        -9.866039276123047
      ],
      [
        "▁ସା",
        -9.867247581481934
      ],
      [
        "▁ನಿ",
        -9.867400169372559
      ],
      [
        "▁शामिल",
        -9.868157386779785
      ],
      [
        "▁ଅନ୍ୟ",
        -9.868437767028809
      ],
      [
        "िका",
        -9.868802070617676
      ],
      [
        "మే",
        -9.868978500366211
      ],
      [
        "▁ਅਕਾਲੀ",
        -9.869073867797852
      ],
      [
        "▁കോ",
        -9.869115829467773
      ],
      [
        "▁কোনও",
        -9.869156837463379
      ],
      [
        "টে",
        -9.869461059570312
      ],
      [
        "▁মতো",
        -9.869461059570312
      ],
      [
        "▁খা",
        -9.869488716125488
      ],
      [
        "▁जाएगा",
        -9.870359420776367
      ],
      [
        "▁प्रकार",
        -9.870384216308594
      ],
      [
        "▁চাই",
        -9.870452880859375
      ],
      [
        "▁কৰিছে৷",
        -9.87099838256836
      ],
      [
        "▁পিছত",
        -9.87171459197998
      ],
      [
        "ିକ",
        -9.871773719787598
      ],
      [
        "▁দ্বিতীয়",
        -9.872036933898926
      ],
      [
        "▁डॉ",
        -9.872404098510742
      ],
      [
        "নের",
        -9.872627258300781
      ],
      [
        "▁ஐ",
        -9.873115539550781
      ],
      [
        "▁சென்னை",
        -9.874195098876953
      ],
      [
        "▁તેમણે",
        -9.875303268432617
      ],
      [
        "▁वा",
        -9.875454902648926
      ],
      [
        "ପ୍",
        -9.875694274902344
      ],
      [
        "ಿತು",
        -9.876998901367188
      ],
      [
        "ৰী",
        -9.877071380615234
      ],
      [
        "▁শিশু",
        -9.877242088317871
      ],
      [
        "▁वहीं",
        -9.8778657913208
      ],
      [
        "▁পোৱা",
        -9.877904891967773
      ],
      [
        "▁ମୁଖ୍ୟ",
        -9.878422737121582
      ],
      [
        "▁తర్వాత",
        -9.878464698791504
      ],
      [
        "▁ਮਾਮਲੇ",
        -9.879560470581055
      ],
      [
        "▁தி",
        -9.879833221435547
      ],
      [
        "▁ਉ",
        -9.879975318908691
      ],
      [
        "সে",
        -9.87998104095459
      ],
      [
        "బ్",
        -9.880640029907227
      ],
      [
        "▁പുതിയ",
        -9.88129711151123
      ],
      [
        "डे",
        -9.881433486938477
      ],
      [
        "ാതെ",
        -9.881814956665039
      ],
      [
        "▁ইসলাম",
        -9.8819580078125
      ],
      [
        "ാല്",
        -9.88237476348877
      ],
      [
        "ിക",
        -9.882491111755371
      ],
      [
        "▁উল্লেখ্য",
        -9.882631301879883
      ],
      [
        "ियां",
        -9.882967948913574
      ],
      [
        "▁वापर",
        -9.883130073547363
      ],
      [
        "্যা",
        -9.883191108703613
      ],
      [
        ".”",
        -9.88327693939209
      ],
      [
        "V",
        -9.883305549621582
      ],
      [
        "ண்ட",
        -9.883452415466309
      ],
      [
        "दी",
        -9.883578300476074
      ],
      [
        "▁दिली",
        -9.883578300476074
      ],
      [
        "▁எந்த",
        -9.883623123168945
      ],
      [
        "▁ଓଡ଼ିଶା",
        -9.88537311553955
      ],
      [
        "▁मन",
        -9.885395050048828
      ],
      [
        "▁U",
        -9.885468482971191
      ],
      [
        "▁गांधी",
        -9.886103630065918
      ],
      [
        "▁ਵਿਭਾਗ",
        -9.88689136505127
      ],
      [
        "▁if",
        -9.88698673248291
      ],
      [
        "ર્",
        -9.887389183044434
      ],
      [
        "▁கால",
        -9.88739013671875
      ],
      [
        "▁ব্যক্তি",
        -9.887430191040039
      ],
      [
        "ார்கள்",
        -9.887603759765625
      ],
      [
        "▁बना",
        -9.887742042541504
      ],
      [
        "மு",
        -9.888542175292969
      ],
      [
        "▁काफी",
        -9.88918399810791
      ],
      [
        "રે",
        -9.889472961425781
      ],
      [
        "ড়া",
        -9.889581680297852
      ],
      [
        "▁ଭାରତ",
        -9.88980770111084
      ],
      [
        "ৎ",
        -9.89001750946045
      ],
      [
        "▁ഗ",
        -9.890743255615234
      ],
      [
        "U",
        -9.890795707702637
      ],
      [
        "▁గురించి",
        -9.891233444213867
      ],
      [
        "▁ઇ",
        -9.891446113586426
      ],
      [
        "▁ਪਾ",
        -9.89177417755127
      ],
      [
        "▁கே",
        -9.892135620117188
      ],
      [
        "ry",
        -9.892338752746582
      ],
      [
        "R",
        -9.892511367797852
      ],
      [
        "▁ત",
        -9.89278793334961
      ],
      [
        "ৌ",
        -9.893189430236816
      ],
      [
        "মু",
        -9.893340110778809
      ],
      [
        "ுடன்",
        -9.893522262573242
      ],
      [
        "▁जाती",
        -9.89355754852295
      ],
      [
        "▁ಸಹ",
        -9.893644332885742
      ],
      [
        "▁પી",
        -9.893917083740234
      ],
      [
        "▁து",
        -9.894070625305176
      ],
      [
        "हा",
        -9.894762992858887
      ],
      [
        "H",
        -9.89502239227295
      ],
      [
        "▁ହେଉଛି",
        -9.895066261291504
      ],
      [
        "▁কেন্দ্রীয়",
        -9.895071029663086
      ],
      [
        "▁সক্ষম",
        -9.895262718200684
      ],
      [
        "▁মত",
        -9.895345687866211
      ],
      [
        "ন্ত",
        -9.895767211914062
      ],
      [
        "ವೆ",
        -9.895915985107422
      ],
      [
        "ాలని",
        -9.89626693725586
      ],
      [
        "વિ",
        -9.89631462097168
      ],
      [
        "▁ধরে",
        -9.897045135498047
      ],
      [
        "ਥ",
        -9.898099899291992
      ],
      [
        "▁மீது",
        -9.89825439453125
      ],
      [
        "▁होणार",
        -9.898283004760742
      ],
      [
        "ter",
        -9.898612022399902
      ],
      [
        "ાઇ",
        -9.899157524108887
      ],
      [
        "ನೇ",
        -9.899556159973145
      ],
      [
        "ଳି",
        -9.899590492248535
      ],
      [
        "ിട്ടുണ്ട്",
        -9.89972972869873
      ],
      [
        "▁such",
        -9.89999008178711
      ],
      [
        "ist",
        -9.90036392211914
      ],
      [
        "▁#",
        -9.900409698486328
      ],
      [
        "▁১১",
        -9.900863647460938
      ],
      [
        "ৈ",
        -9.90172290802002
      ],
      [
        "ഭ",
        -9.9019775390625
      ],
      [
        "▁વાત",
        -9.902458190917969
      ],
      [
        "▁১২",
        -9.902462005615234
      ],
      [
        "વું",
        -9.902690887451172
      ],
      [
        "యం",
        -9.903379440307617
      ],
      [
        "▁కి",
        -9.90349006652832
      ],
      [
        "di",
        -9.903966903686523
      ],
      [
        "ଙ୍ଗ",
        -9.904216766357422
      ],
      [
        "▁ପି",
        -9.904946327209473
      ],
      [
        "গুলো",
        -9.90543270111084
      ],
      [
        "ൾ",
        -9.906017303466797
      ],
      [
        "రో",
        -9.906582832336426
      ],
      [
        "দি",
        -9.906734466552734
      ],
      [
        "▁ৰে",
        -9.907100677490234
      ],
      [
        "▁now",
        -9.90727710723877
      ],
      [
        "▁ಕಾರಣ",
        -9.907752990722656
      ],
      [
        "▁కలిగి",
        -9.907788276672363
      ],
      [
        "▁ଉ",
        -9.907853126525879
      ],
      [
        "▁എന്ന്",
        -9.908178329467773
      ],
      [
        "▁জেলা",
        -9.908268928527832
      ],
      [
        "କି",
        -9.908418655395508
      ],
      [
        "▁ସବୁ",
        -9.908536911010742
      ],
      [
        "▁আটক",
        -9.908537864685059
      ],
      [
        "েও",
        -9.908931732177734
      ],
      [
        "ിക്കുന്ന",
        -9.908943176269531
      ],
      [
        "బ",
        -9.909241676330566
      ],
      [
        "▁বিভাগৰ",
        -9.9097318649292
      ],
      [
        "▁মহা",
        -9.910238265991211
      ],
      [
        "ਗਾ",
        -9.910442352294922
      ],
      [
        "ad",
        -9.910550117492676
      ],
      [
        "▁पी",
        -9.910568237304688
      ],
      [
        "▁కాదు",
        -9.910856246948242
      ],
      [
        "ుడు",
        -9.91102409362793
      ],
      [
        "তার",
        -9.911168098449707
      ],
      [
        "▁சொல்ல",
        -9.912278175354004
      ],
      [
        "▁முறை",
        -9.912309646606445
      ],
      [
        "▁இருக்க",
        -9.912383079528809
      ],
      [
        "ਫ਼",
        -9.912588119506836
      ],
      [
        "▁ಪ್ರತಿ",
        -9.912955284118652
      ],
      [
        "▁ପ୍ରଥମ",
        -9.912995338439941
      ],
      [
        "▁ഉ",
        -9.913037300109863
      ],
      [
        "im",
        -9.913797378540039
      ],
      [
        "तो",
        -9.914077758789062
      ],
      [
        "▁১৫",
        -9.914624214172363
      ],
      [
        "▁संघ",
        -9.914712905883789
      ],
      [
        "▁நா",
        -9.914972305297852
      ],
      [
        "▁নাগৰিকত্ব",
        -9.915080070495605
      ],
      [
        "▁मांग",
        -9.915523529052734
      ],
      [
        "▁ಬರ",
        -9.915596008300781
      ],
      [
        "▁ਆਦਿ",
        -9.916293144226074
      ],
      [
        "ro",
        -9.916569709777832
      ],
      [
        "▁କାର୍ଯ୍ୟ",
        -9.917032241821289
      ],
      [
        "▁Sa",
        -9.917586326599121
      ],
      [
        "▁बैठक",
        -9.917789459228516
      ],
      [
        "খনৰ",
        -9.918095588684082
      ],
      [
        "▁କରିଥିବା",
        -9.919840812683105
      ],
      [
        "▁ಎಲ್ಲಾ",
        -9.920207977294922
      ],
      [
        "▁పార్టీ",
        -9.920268058776855
      ],
      [
        "ೈ",
        -9.92029094696045
      ],
      [
        "ांचे",
        -9.921042442321777
      ],
      [
        "▁पि",
        -9.921116828918457
      ],
      [
        "L",
        -9.92141342163086
      ],
      [
        "▁জয়",
        -9.92149543762207
      ],
      [
        "▁পালন",
        -9.921587944030762
      ],
      [
        "▁চৰকাৰ",
        -9.921756744384766
      ],
      [
        "▁ఉన్నాయి",
        -9.922698020935059
      ],
      [
        "ৱে",
        -9.922882080078125
      ],
      [
        "▁यांना",
        -9.923064231872559
      ],
      [
        "▁ಕೆಲಸ",
        -9.923227310180664
      ],
      [
        "▁जानकारी",
        -9.923733711242676
      ],
      [
        "ਟਰ",
        -9.923765182495117
      ],
      [
        "ನಲ್ಲಿ",
        -9.923828125
      ],
      [
        "▁ਵਾਲੀ",
        -9.924139976501465
      ],
      [
        "▁ପ୍ରତି",
        -9.925067901611328
      ],
      [
        "ील",
        -9.925899505615234
      ],
      [
        "▁সাংবাদিক",
        -9.92640495300293
      ],
      [
        "▁போன்ற",
        -9.92657470703125
      ],
      [
        "▁প্রধানমন্ত্রী",
        -9.927225112915039
      ],
      [
        "▁കു",
        -9.927270889282227
      ],
      [
        "▁कार",
        -9.927638053894043
      ],
      [
        "ध",
        -9.92769718170166
      ],
      [
        "▁কো",
        -9.92776107788086
      ],
      [
        "શે",
        -9.928497314453125
      ],
      [
        "▁ഹ",
        -9.928571701049805
      ],
      [
        "▁জানিব",
        -9.929183959960938
      ],
      [
        "▁সরকার",
        -9.929396629333496
      ],
      [
        "▁రూ",
        -9.929521560668945
      ],
      [
        "ா்",
        -9.929535865783691
      ],
      [
        "▁కొన్ని",
        -9.930131912231445
      ],
      [
        "ഡി",
        -9.930943489074707
      ],
      [
        "ਸ਼ਨ",
        -9.930996894836426
      ],
      [
        "▁সাহিত্য",
        -9.931167602539062
      ],
      [
        "ுவது",
        -9.931360244750977
      ],
      [
        "▁প্রশ্ন",
        -9.931446075439453
      ],
      [
        "▁party",
        -9.931708335876465
      ],
      [
        "୨",
        -9.932049751281738
      ],
      [
        "▁দিয়াৰ",
        -9.932394981384277
      ],
      [
        "ಳಿ",
        -9.932710647583008
      ],
      [
        "ਵਰ",
        -9.93293571472168
      ],
      [
        "▁तरी",
        -9.933272361755371
      ],
      [
        "▁मान",
        -9.933845520019531
      ],
      [
        "▁அணி",
        -9.9341402053833
      ],
      [
        "▁পড়ে",
        -9.934638977050781
      ],
      [
        "▁ଦେଇଛନ୍ତି",
        -9.934703826904297
      ],
      [
        "ದ್ದ",
        -9.934967994689941
      ],
      [
        "▁கை",
        -9.934988021850586
      ],
      [
        "▁தற்போது",
        -9.93509578704834
      ],
      [
        "ਜਾ",
        -9.935352325439453
      ],
      [
        "▁ନିର୍ବାଚନ",
        -9.935770034790039
      ],
      [
        "ഴ",
        -9.935866355895996
      ],
      [
        "▁ಚಿತ್ರ",
        -9.937003135681152
      ],
      [
        "▁य",
        -9.93700885772705
      ],
      [
        "▁O",
        -9.937064170837402
      ],
      [
        "▁made",
        -9.937079429626465
      ],
      [
        "▁திரு",
        -9.937620162963867
      ],
      [
        "▁କା",
        -9.93770980834961
      ],
      [
        "વે",
        -9.93775463104248
      ],
      [
        "યા",
        -9.938201904296875
      ],
      [
        "▁News",
        -9.938491821289062
      ],
      [
        "ക്ഷ",
        -9.938935279846191
      ],
      [
        "▁તેમને",
        -9.939302444458008
      ],
      [
        "▁এটি",
        -9.939620971679688
      ],
      [
        "▁தலை",
        -9.940328598022461
      ],
      [
        "ष",
        -9.940632820129395
      ],
      [
        "▁குறித்து",
        -9.94094467163086
      ],
      [
        "ੋਂ",
        -9.941092491149902
      ],
      [
        "▁তখন",
        -9.94123649597168
      ],
      [
        "▁தொடர்ந்து",
        -9.9423189163208
      ],
      [
        "▁റെ",
        -9.942644119262695
      ],
      [
        "▁where",
        -9.943385124206543
      ],
      [
        "▁सामने",
        -9.943886756896973
      ],
      [
        "▁ଅନେକ",
        -9.944536209106445
      ],
      [
        "▁सब",
        -9.94477653503418
      ],
      [
        "ंना",
        -9.94540786743164
      ],
      [
        "▁ಹೇಳ",
        -9.94597339630127
      ],
      [
        "ളി",
        -9.946714401245117
      ],
      [
        "▁ਸਭਾ",
        -9.946785926818848
      ],
      [
        "ಕ್ಷ",
        -9.947471618652344
      ],
      [
        "▁పెద్ద",
        -9.947629928588867
      ],
      [
        "नि",
        -9.948234558105469
      ],
      [
        "िल",
        -9.948739051818848
      ],
      [
        "ન્ટ",
        -9.94931697845459
      ],
      [
        "ास",
        -9.949503898620605
      ],
      [
        "▁લે",
        -9.949813842773438
      ],
      [
        "▁But",
        -9.949908256530762
      ],
      [
        "ങ്ക",
        -9.950108528137207
      ],
      [
        "▁PM",
        -9.950167655944824
      ],
      [
        "ജ",
        -9.950236320495605
      ],
      [
        "▁ভা",
        -9.951143264770508
      ],
      [
        "▁பட",
        -9.951313972473145
      ],
      [
        "▁କଂଗ୍ରେସ",
        -9.95190143585205
      ],
      [
        "விட",
        -9.951977729797363
      ],
      [
        "▁ଜଣ",
        -9.952047348022461
      ],
      [
        "പ്പ്",
        -9.953103065490723
      ],
      [
        "▁অনু",
        -9.953210830688477
      ],
      [
        "▁could",
        -9.953634262084961
      ],
      [
        "▁ନା",
        -9.954540252685547
      ],
      [
        "▁৯",
        -9.954604148864746
      ],
      [
        "The",
        -9.95494270324707
      ],
      [
        "హ",
        -9.9550199508667
      ],
      [
        "ेल",
        -9.955059051513672
      ],
      [
        "▁ഡ",
        -9.955142974853516
      ],
      [
        "▁ਦਿੱਲੀ",
        -9.955808639526367
      ],
      [
        "কু",
        -9.956113815307617
      ],
      [
        "നം",
        -9.95628547668457
      ],
      [
        "▁ପୋଲିସ",
        -9.95677375793457
      ],
      [
        "▁వా",
        -9.956833839416504
      ],
      [
        "ਡੀ",
        -9.957425117492676
      ],
      [
        "▁সংখ্যা",
        -9.957512855529785
      ],
      [
        "▁આપી",
        -9.957782745361328
      ],
      [
        "sh",
        -9.957865715026855
      ],
      [
        "ீ",
        -9.95797348022461
      ],
      [
        "▁જરૂર",
        -9.958097457885742
      ],
      [
        "▁ਰੂਪ",
        -9.958108901977539
      ],
      [
        "▁ਨਿ",
        -9.958334922790527
      ],
      [
        "▁ইফালে",
        -9.958654403686523
      ],
      [
        "শা",
        -9.95877742767334
      ],
      [
        "▁ಎಸ್",
        -9.959053039550781
      ],
      [
        "▁ਲੋੜ",
        -9.959263801574707
      ],
      [
        "▁તમામ",
        -9.95930290222168
      ],
      [
        "▁जैसे",
        -9.959525108337402
      ],
      [
        "ક્ષ",
        -9.959967613220215
      ],
      [
        "ಜಿ",
        -9.96041202545166
      ],
      [
        "▁ಮಾಡಿ",
        -9.960418701171875
      ],
      [
        "ઇ",
        -9.961339950561523
      ],
      [
        "▁ചെയ്യ",
        -9.96203327178955
      ],
      [
        "▁தலைவர்",
        -9.962077140808105
      ],
      [
        "▁ৰাইজে",
        -9.96217155456543
      ],
      [
        "ঙ্গ",
        -9.962187767028809
      ],
      [
        "પી",
        -9.962566375732422
      ],
      [
        "4",
        -9.962642669677734
      ],
      [
        "▁ಇಲ್ಲ",
        -9.962770462036133
      ],
      [
        "▁during",
        -9.963072776794434
      ],
      [
        "▁three",
        -9.963444709777832
      ],
      [
        "▁সাধাৰণ",
        -9.963482856750488
      ],
      [
        "▁વર્ષ",
        -9.963662147521973
      ],
      [
        "▁म्हणजे",
        -9.964896202087402
      ],
      [
        "▁This",
        -9.964908599853516
      ],
      [
        "▁ਦਲ",
        -9.965323448181152
      ],
      [
        "થ",
        -9.965450286865234
      ],
      [
        "▁इसी",
        -9.965472221374512
      ],
      [
        "ਿਤ",
        -9.965502738952637
      ],
      [
        "জনে",
        -9.965620040893555
      ],
      [
        "ಯೂ",
        -9.966096878051758
      ],
      [
        "ುತ್ತವೆ",
        -9.966279029846191
      ],
      [
        "ઈ",
        -9.966436386108398
      ],
      [
        "▁પોતાના",
        -9.966584205627441
      ],
      [
        "യായ",
        -9.966851234436035
      ],
      [
        "ण्यासाठी",
        -9.966897010803223
      ],
      [
        "▁କାମ",
        -9.967151641845703
      ],
      [
        "▁ల",
        -9.967660903930664
      ],
      [
        "জে",
        -9.968239784240723
      ],
      [
        "▁ਕਰਦਿਆਂ",
        -9.968607902526855
      ],
      [
        "▁ਹਾਂ",
        -9.969815254211426
      ],
      [
        "7",
        -9.969864845275879
      ],
      [
        "ணி",
        -9.97027587890625
      ],
      [
        "ুর",
        -9.970380783081055
      ],
      [
        "▁ଏହାର",
        -9.970416069030762
      ],
      [
        "ಕೆ",
        -9.970463752746582
      ],
      [
        "▁प्रत्येक",
        -9.970870971679688
      ],
      [
        "पासून",
        -9.970947265625
      ],
      [
        "▁ਸਿੱਖ",
        -9.970985412597656
      ],
      [
        "▁ଦେଇଥିଲେ",
        -9.971116065979004
      ],
      [
        "▁We",
        -9.971242904663086
      ],
      [
        "പ്പെട്ട",
        -9.971272468566895
      ],
      [
        "ँ",
        -9.971274375915527
      ],
      [
        "▁s",
        -9.97134017944336
      ],
      [
        "ವರು",
        -9.971713066101074
      ],
      [
        "टे",
        -9.971982955932617
      ],
      [
        "▁স্বাস্থ্য",
        -9.972051620483398
      ],
      [
        "▁ਕਾ",
        -9.97237777709961
      ],
      [
        "▁হাতে",
        -9.972540855407715
      ],
      [
        "ಸು",
        -9.972841262817383
      ],
      [
        "வது",
        -9.972883224487305
      ],
      [
        "সমূহ",
        -9.973371505737305
      ],
      [
        "30",
        -9.973455429077148
      ],
      [
        "டை",
        -9.973623275756836
      ],
      [
        "▁আশা",
        -9.973824501037598
      ],
      [
        "▁ਪ੍ਰਾਪਤ",
        -9.973892211914062
      ],
      [
        "▁p",
        -9.974066734313965
      ],
      [
        "▁வேலை",
        -9.97407054901123
      ],
      [
        "te",
        -9.974228858947754
      ],
      [
        "▁स्",
        -9.974502563476562
      ],
      [
        "ಕಾ",
        -9.97570514678955
      ],
      [
        "▁my",
        -9.975794792175293
      ],
      [
        "ാത്ത",
        -9.975863456726074
      ],
      [
        "ंत",
        -9.976143836975098
      ],
      [
        "▁పని",
        -9.976210594177246
      ],
      [
        "उ",
        -9.976263999938965
      ],
      [
        "▁ಹೊಸ",
        -9.976594924926758
      ],
      [
        "ਜੀ",
        -9.976705551147461
      ],
      [
        "▁పై",
        -9.977203369140625
      ],
      [
        "▁वर",
        -9.977487564086914
      ],
      [
        "▁ಮೊದಲ",
        -9.977798461914062
      ],
      [
        "▁ਵਿ",
        -9.977869033813477
      ],
      [
        "▁કો",
        -9.978602409362793
      ],
      [
        "▁প্ৰতিবাদ",
        -9.978751182556152
      ],
      [
        "de",
        -9.979327201843262
      ],
      [
        "▁വലിയ",
        -9.979728698730469
      ],
      [
        "▁மத்திய",
        -9.980350494384766
      ],
      [
        "▁ଘଟଣା",
        -9.980775833129883
      ],
      [
        "▁જાય",
        -9.981175422668457
      ],
      [
        "ির",
        -9.981635093688965
      ],
      [
        "▁મા",
        -9.981635093688965
      ],
      [
        "▁ಕಾ",
        -9.982002258300781
      ],
      [
        "গৰাকীয়ে",
        -9.982550621032715
      ],
      [
        "▁জা",
        -9.982812881469727
      ],
      [
        "સા",
        -9.983465194702148
      ],
      [
        "ப்பட்டு",
        -9.98348331451416
      ],
      [
        "ബി",
        -9.984199523925781
      ],
      [
        "▁নিহত",
        -9.984347343444824
      ],
      [
        "▁જોવા",
        -9.984586715698242
      ],
      [
        "▁dis",
        -9.985221862792969
      ],
      [
        "):",
        -9.985297203063965
      ],
      [
        "দার",
        -9.985624313354492
      ],
      [
        "ಿಲ್ಲ",
        -9.986166954040527
      ],
      [
        "களையும்",
        -9.98637580871582
      ],
      [
        "▁ਬੀ",
        -9.987135887145996
      ],
      [
        "ப்பட்டது",
        -9.987906455993652
      ],
      [
        "▁ସମସ୍ତ",
        -9.987979888916016
      ],
      [
        "ন্দ",
        -9.988182067871094
      ],
      [
        "▁എന്നാൽ",
        -9.988608360290527
      ],
      [
        "ണ്",
        -9.988645553588867
      ],
      [
        "୩",
        -9.988688468933105
      ],
      [
        "▁चर्चा",
        -9.988741874694824
      ],
      [
        "ভা",
        -9.989202499389648
      ],
      [
        "▁દિવસ",
        -9.98922061920166
      ],
      [
        "▁ਜਾਰੀ",
        -9.989327430725098
      ],
      [
        "▁ପ୍ରକାଶ",
        -9.989737510681152
      ],
      [
        "▁होगी",
        -9.989890098571777
      ],
      [
        "জনক",
        -9.990042686462402
      ],
      [
        "▁ତ",
        -9.990242958068848
      ],
      [
        "▁புதிய",
        -9.990330696105957
      ],
      [
        "▁ദ",
        -9.990559577941895
      ],
      [
        "▁ਕਰੋ",
        -9.991120338439941
      ],
      [
        "▁বছৰ",
        -9.991267204284668
      ],
      [
        "▁b",
        -9.991584777832031
      ],
      [
        "▁ചെയ്തു",
        -9.991744041442871
      ],
      [
        "▁e",
        -9.991793632507324
      ],
      [
        "▁ਅਨੁਸਾਰ",
        -9.991829872131348
      ],
      [
        "मुळे",
        -9.991835594177246
      ],
      [
        "▁ধন",
        -9.991924285888672
      ],
      [
        "▁লগে",
        -9.992059707641602
      ],
      [
        "ಚ",
        -9.992557525634766
      ],
      [
        "▁these",
        -9.992988586425781
      ],
      [
        "▁60",
        -9.993291854858398
      ],
      [
        "ത്തി",
        -9.993308067321777
      ],
      [
        "▁নহ",
        -9.993668556213379
      ],
      [
        "▁શરૂ",
        -9.993842124938965
      ],
      [
        "▁country",
        -9.99396800994873
      ],
      [
        "ळी",
        -9.994233131408691
      ],
      [
        "▁দ",
        -9.994542121887207
      ],
      [
        "▁২০১৯",
        -9.995036125183105
      ],
      [
        "▁ല",
        -9.995537757873535
      ],
      [
        "▁ਘੱਟ",
        -9.99586009979248
      ],
      [
        "ary",
        -9.996161460876465
      ],
      [
        "▁উন্নয়ন",
        -9.99621868133545
      ],
      [
        "▁what",
        -9.996298789978027
      ],
      [
        "▁చెప్ప",
        -9.996326446533203
      ],
      [
        "com",
        -9.996552467346191
      ],
      [
        "▁ଗତ",
        -9.996789932250977
      ],
      [
        "▁ద",
        -9.997150421142578
      ],
      [
        "▁দাবি",
        -9.997398376464844
      ],
      [
        "ज़",
        -9.997795104980469
      ],
      [
        "▁ইতিমধ্যে",
        -9.997830390930176
      ],
      [
        "ష",
        -9.99820327758789
      ],
      [
        "▁দলৰ",
        -9.99825382232666
      ],
      [
        "▁मंदिर",
        -9.999273300170898
      ],
      [
        "▁ಬಂದ",
        -9.999927520751953
      ],
      [
        "▁ഒ",
        -10.0001220703125
      ],
      [
        "ant",
        -10.00080680847168
      ],
      [
        "▁સામાન્ય",
        -10.001431465148926
      ],
      [
        "▁പ്രവര്",
        -10.001608848571777
      ],
      [
        "ଷ",
        -10.001819610595703
      ],
      [
        "▁ಜ",
        -10.002058982849121
      ],
      [
        "ak",
        -10.002305030822754
      ],
      [
        "ഷ്",
        -10.002652168273926
      ],
      [
        "▁पूर्ण",
        -10.002894401550293
      ],
      [
        "▁co",
        -10.00313949584961
      ],
      [
        "▁says",
        -10.00324535369873
      ],
      [
        "▁ନୂଆ",
        -10.004762649536133
      ],
      [
        "▁సి",
        -10.006036758422852
      ],
      [
        "लो",
        -10.00666332244873
      ],
      [
        "▁জল",
        -10.00667667388916
      ],
      [
        "▁पिछले",
        -10.00692367553711
      ],
      [
        "▁দলে",
        -10.00762939453125
      ],
      [
        "▁st",
        -10.008976936340332
      ],
      [
        "▁రి",
        -10.009356498718262
      ],
      [
        "▁crore",
        -10.009687423706055
      ],
      [
        "ੜਾ",
        -10.01065444946289
      ],
      [
        "▁আম",
        -10.010820388793945
      ],
      [
        "தால்",
        -10.01123332977295
      ],
      [
        "▁अनुसार",
        -10.011282920837402
      ],
      [
        "▁তিন",
        -10.011283874511719
      ],
      [
        "▁29",
        -10.011763572692871
      ],
      [
        "▁അദ്ദേഹം",
        -10.011940956115723
      ],
      [
        "▁ആണ്",
        -10.012127876281738
      ],
      [
        "ய்",
        -10.01223373413086
      ],
      [
        "യാ",
        -10.01235580444336
      ],
      [
        "பு",
        -10.012466430664062
      ],
      [
        "▁ली",
        -10.012970924377441
      ],
      [
        "▁बता",
        -10.013114929199219
      ],
      [
        "▁કરતા",
        -10.013205528259277
      ],
      [
        "ছা",
        -10.013394355773926
      ],
      [
        "णार",
        -10.013957977294922
      ],
      [
        "ಬ್",
        -10.014679908752441
      ],
      [
        "▁इसे",
        -10.014801025390625
      ],
      [
        "▁US",
        -10.015371322631836
      ],
      [
        "▁ത്ത",
        -10.015795707702637
      ],
      [
        "▁बी",
        -10.016251564025879
      ],
      [
        "man",
        -10.017202377319336
      ],
      [
        "கை",
        -10.0172119140625
      ],
      [
        "िन",
        -10.017274856567383
      ],
      [
        "▁গুৱাহাটী",
        -10.017284393310547
      ],
      [
        "to",
        -10.017463684082031
      ],
      [
        "க்கி",
        -10.017507553100586
      ],
      [
        "▁സു",
        -10.017691612243652
      ],
      [
        "▁पद",
        -10.01794719696045
      ],
      [
        "▁அதன்",
        -10.017951965332031
      ],
      [
        "▁જેમાં",
        -10.018006324768066
      ],
      [
        "ாலும்",
        -10.018250465393066
      ],
      [
        "▁টা",
        -10.018430709838867
      ],
      [
        "▁ଏଭଳି",
        -10.019614219665527
      ],
      [
        "▁ବେ",
        -10.019654273986816
      ],
      [
        "വർ",
        -10.019787788391113
      ],
      [
        "రే",
        -10.01992130279541
      ],
      [
        "স্",
        -10.0200834274292
      ],
      [
        "୫",
        -10.020210266113281
      ],
      [
        "▁എന്നാല്",
        -10.02088451385498
      ],
      [
        "▁মাধ্যমে",
        -10.021005630493164
      ],
      [
        "▁വര",
        -10.021270751953125
      ],
      [
        "றை",
        -10.021613121032715
      ],
      [
        "ণ্ড",
        -10.021873474121094
      ],
      [
        "മുള്ള",
        -10.021991729736328
      ],
      [
        "▁[",
        -10.022233963012695
      ],
      [
        "▁பெரிய",
        -10.022257804870605
      ],
      [
        "▁सकती",
        -10.02231502532959
      ],
      [
        "▁આજે",
        -10.023392677307129
      ],
      [
        "కో",
        -10.023441314697266
      ],
      [
        "▁सि",
        -10.023859024047852
      ],
      [
        "▁પોલીસ",
        -10.02403736114502
      ],
      [
        "খনত",
        -10.024311065673828
      ],
      [
        "ಿತ್ತು",
        -10.024418830871582
      ],
      [
        "▁সমিতিৰ",
        -10.02459716796875
      ],
      [
        "▁மே",
        -10.024937629699707
      ],
      [
        "▁પ્રથમ",
        -10.025115013122559
      ],
      [
        "ોમાં",
        -10.026233673095703
      ],
      [
        "श्",
        -10.026535034179688
      ],
      [
        "టీ",
        -10.02683162689209
      ],
      [
        "▁ಕೆಲವು",
        -10.026963233947754
      ],
      [
        "▁মুখ্যমন্ত্রী",
        -10.027292251586914
      ],
      [
        "▁ଗୋଟିଏ",
        -10.027326583862305
      ],
      [
        "ಷ",
        -10.027536392211914
      ],
      [
        "▁તમારી",
        -10.027990341186523
      ],
      [
        "मान",
        -10.02830696105957
      ],
      [
        "▁गांव",
        -10.028314590454102
      ],
      [
        "ha",
        -10.02843952178955
      ],
      [
        "▁ശേഷം",
        -10.028684616088867
      ],
      [
        "വര",
        -10.028702735900879
      ],
      [
        "ty",
        -10.028738021850586
      ],
      [
        "▁ਨਗਰ",
        -10.028873443603516
      ],
      [
        "క్ష",
        -10.028972625732422
      ],
      [
        "ਸਾ",
        -10.029154777526855
      ],
      [
        "▁খুব",
        -10.02960205078125
      ],
      [
        "▁take",
        -10.029661178588867
      ],
      [
        "▁दर्ज",
        -10.029680252075195
      ],
      [
        "▁নাই৷",
        -10.030024528503418
      ],
      [
        "▁নিশা",
        -10.030122756958008
      ],
      [
        "▁கூற",
        -10.03022289276123
      ],
      [
        "▁મળી",
        -10.030293464660645
      ],
      [
        "▁એમ",
        -10.030718803405762
      ],
      [
        "र्स",
        -10.031075477600098
      ],
      [
        "▁ଲୋକ",
        -10.031153678894043
      ],
      [
        "▁ହଜାର",
        -10.031292915344238
      ],
      [
        "▁ഏറ്റവും",
        -10.032238006591797
      ],
      [
        "▁ചില",
        -10.032238960266113
      ],
      [
        "పి",
        -10.032466888427734
      ],
      [
        "લો",
        -10.032529830932617
      ],
      [
        "జి",
        -10.033066749572754
      ],
      [
        "▁দাস",
        -10.033546447753906
      ],
      [
        "▁আছে৷",
        -10.033814430236816
      ],
      [
        "പ്ര",
        -10.033832550048828
      ],
      [
        "പ്",
        -10.033863067626953
      ],
      [
        "आ",
        -10.03420352935791
      ],
      [
        "▁பேச",
        -10.034270286560059
      ],
      [
        "▁ਤਿੰਨ",
        -10.034387588500977
      ],
      [
        "ting",
        -10.034558296203613
      ],
      [
        "6",
        -10.034706115722656
      ],
      [
        "▁શકાય",
        -10.035114288330078
      ],
      [
        "গত",
        -10.03544807434082
      ],
      [
        "▁বুলিও",
        -10.035585403442383
      ],
      [
        "▁work",
        -10.035626411437988
      ],
      [
        "▁জন্ম",
        -10.035699844360352
      ],
      [
        "▁গিয়ে",
        -10.03571605682373
      ],
      [
        "୪",
        -10.035923957824707
      ],
      [
        "▁సం",
        -10.036041259765625
      ],
      [
        "இ",
        -10.036408424377441
      ],
      [
        "ച",
        -10.037362098693848
      ],
      [
        "ൗ",
        -10.037458419799805
      ],
      [
        "▁પાણી",
        -10.037707328796387
      ],
      [
        "ਕੀ",
        -10.037970542907715
      ],
      [
        "வன்",
        -10.037986755371094
      ],
      [
        "সকলক",
        -10.038037300109863
      ],
      [
        "▁नाव",
        -10.038079261779785
      ],
      [
        "▁प्रमुख",
        -10.038484573364258
      ],
      [
        "▁வழங்க",
        -10.038692474365234
      ],
      [
        "ଡ଼ି",
        -10.038887023925781
      ],
      [
        "▁નિ",
        -10.039270401000977
      ],
      [
        "▁દરમિયાન",
        -10.039504051208496
      ],
      [
        "▁പാ",
        -10.039998054504395
      ],
      [
        "▁तब",
        -10.041178703308105
      ],
      [
        "▁તમને",
        -10.041268348693848
      ],
      [
        "ਹਾ",
        -10.042381286621094
      ],
      [
        "co",
        -10.042518615722656
      ],
      [
        "▁राष्ट्रीय",
        -10.043088912963867
      ],
      [
        "ாள்",
        -10.04312801361084
      ],
      [
        "ਕਾਰ",
        -10.04342269897461
      ],
      [
        "▁ମୃତ୍ୟୁ",
        -10.043516159057617
      ],
      [
        "▁back",
        -10.04367446899414
      ],
      [
        "വ്",
        -10.043771743774414
      ],
      [
        "ॅ",
        -10.043783187866211
      ],
      [
        "ിരുന്ന",
        -10.044588088989258
      ],
      [
        "ಧ",
        -10.044669151306152
      ],
      [
        "ंनी",
        -10.04489517211914
      ],
      [
        "▁અમે",
        -10.044937133789062
      ],
      [
        "j",
        -10.044951438903809
      ],
      [
        "▁এগৰাকী",
        -10.045035362243652
      ],
      [
        "▁ము",
        -10.045095443725586
      ],
      [
        "▁লাগে",
        -10.04519271850586
      ],
      [
        "▁फ",
        -10.045211791992188
      ],
      [
        "▁উল্লেখযোগ্য",
        -10.045636177062988
      ],
      [
        "▁ଭାରତୀୟ",
        -10.045865058898926
      ],
      [
        "▁ಉ",
        -10.045886993408203
      ],
      [
        "▁যাবে",
        -10.046420097351074
      ],
      [
        "▁दूर",
        -10.046455383300781
      ],
      [
        "▁খবর",
        -10.046503067016602
      ],
      [
        "▁વિશે",
        -10.04655933380127
      ],
      [
        "ായിരുന്നു",
        -10.046979904174805
      ],
      [
        "▁आने",
        -10.047060012817383
      ],
      [
        "▁স্থান",
        -10.04741096496582
      ],
      [
        "▁नेता",
        -10.047531127929688
      ],
      [
        "▁তৈরি",
        -10.048117637634277
      ],
      [
        "▁வெற்றி",
        -10.04846477508545
      ],
      [
        "வர",
        -10.048626899719238
      ],
      [
        "▁ମୁଖ୍ୟମନ୍ତ୍ରୀ",
        -10.048654556274414
      ],
      [
        "▁दिले",
        -10.048704147338867
      ],
      [
        "is",
        -10.049147605895996
      ],
      [
        "গৰাকী",
        -10.049201965332031
      ],
      [
        "▁ਕੋਲ",
        -10.049281120300293
      ],
      [
        "▁ਫ",
        -10.04941463470459
      ],
      [
        "▁ਖ",
        -10.04990005493164
      ],
      [
        "▁ഇന്ത്യ",
        -10.049933433532715
      ],
      [
        "▁ગયા",
        -10.050241470336914
      ],
      [
        "पर",
        -10.050455093383789
      ],
      [
        "ਓ",
        -10.050460815429688
      ],
      [
        "ಪಿ",
        -10.05070972442627
      ],
      [
        "▁কেউ",
        -10.050760269165039
      ],
      [
        "▁cent",
        -10.05107307434082
      ],
      [
        "ਕਰ",
        -10.051347732543945
      ],
      [
        "వే",
        -10.051383972167969
      ],
      [
        "▁કરવાની",
        -10.051589012145996
      ],
      [
        "ਟਾ",
        -10.051857948303223
      ],
      [
        "▁સુ",
        -10.05188274383545
      ],
      [
        "ance",
        -10.052047729492188
      ],
      [
        "▁ମହିଳା",
        -10.052138328552246
      ],
      [
        "▁ರಾಜ್ಯ",
        -10.052287101745605
      ],
      [
        "▁करू",
        -10.05234146118164
      ],
      [
        "▁पूरी",
        -10.052988052368164
      ],
      [
        "▁ਸ਼ਾਮਲ",
        -10.053357124328613
      ],
      [
        "ਵੇ",
        -10.053438186645508
      ],
      [
        "ોને",
        -10.05347728729248
      ],
      [
        "▁இரண்டு",
        -10.053498268127441
      ],
      [
        "▁കൈ",
        -10.053500175476074
      ],
      [
        "ಗಳಿಂದ",
        -10.05380916595459
      ],
      [
        "▁தேதி",
        -10.054163932800293
      ],
      [
        "▁സംസ്ഥാന",
        -10.05496597290039
      ],
      [
        "▁আহিছে",
        -10.055045127868652
      ],
      [
        "▁আহ্বান",
        -10.055203437805176
      ],
      [
        "▁દરેક",
        -10.055351257324219
      ],
      [
        "▁తమ",
        -10.055384635925293
      ],
      [
        "▁च",
        -10.055513381958008
      ],
      [
        "est",
        -10.055753707885742
      ],
      [
        "▁பிர",
        -10.05580997467041
      ],
      [
        "▁ପରି",
        -10.055848121643066
      ],
      [
        "স্ট",
        -10.056039810180664
      ],
      [
        "▁మంది",
        -10.056380271911621
      ],
[...]
